{
  "version": "1.0",
  "truncation": null,
  "padding": null,
  "added_tokens": [
    {
      "id": 0,
      "content": "<|endoftext|>",
      "single_word": false,
      "lstrip": false,
      "rstrip": false,
      "normalized": false,
      "special": true
    },
    {
      "id": 1,
      "content": "<|pad|>",
      "single_word": false,
      "lstrip": false,
      "rstrip": false,
      "normalized": false,
      "special": true
    },
    {
      "id": 2,
      "content": "<|unk|>",
      "single_word": false,
      "lstrip": false,
      "rstrip": false,
      "normalized": false,
      "special": true
    }
  ],
  "normalizer": null,
  "pre_tokenizer": {
    "type": "ByteLevel",
    "add_prefix_space": false,
    "trim_offsets": true,
    "use_regex": true
  },
  "post_processor": {
    "type": "ByteLevel",
    "add_prefix_space": true,
    "trim_offsets": false,
    "use_regex": true
  },
  "decoder": null,
  "model": {
    "type": "BPE",
    "dropout": null,
    "unk_token": null,
    "continuing_subword_prefix": null,
    "end_of_word_suffix": null,
    "fuse_unk": false,
    "byte_fallback": false,
    "ignore_merges": false,
    "vocab": {
      "<|endoftext|>": 0,
      "<|pad|>": 1,
      "<|unk|>": 2,
      "!": 3,
      "\"": 4,
      "#": 5,
      "$": 6,
      "%": 7,
      "&": 8,
      "'": 9,
      "(": 10,
      ")": 11,
      "*": 12,
      ",": 13,
      "-": 14,
      ".": 15,
      "/": 16,
      "0": 17,
      "1": 18,
      "2": 19,
      "3": 20,
      "4": 21,
      "5": 22,
      "6": 23,
      "7": 24,
      "8": 25,
      "9": 26,
      ":": 27,
      ";": 28,
      "?": 29,
      "A": 30,
      "B": 31,
      "C": 32,
      "D": 33,
      "E": 34,
      "F": 35,
      "G": 36,
      "H": 37,
      "I": 38,
      "J": 39,
      "K": 40,
      "L": 41,
      "M": 42,
      "N": 43,
      "O": 44,
      "P": 45,
      "Q": 46,
      "R": 47,
      "S": 48,
      "T": 49,
      "U": 50,
      "V": 51,
      "W": 52,
      "X": 53,
      "Y": 54,
      "Z": 55,
      "[": 56,
      "]": 57,
      "_": 58,
      "a": 59,
      "b": 60,
      "c": 61,
      "d": 62,
      "e": 63,
      "f": 64,
      "g": 65,
      "h": 66,
      "i": 67,
      "j": 68,
      "k": 69,
      "l": 70,
      "m": 71,
      "n": 72,
      "o": 73,
      "p": 74,
      "q": 75,
      "r": 76,
      "s": 77,
      "t": 78,
      "u": 79,
      "v": 80,
      "w": 81,
      "x": 82,
      "y": 83,
      "z": 84,
      "¡": 85,
      "¢": 86,
      "¦": 87,
      "§": 88,
      "¨": 89,
      "©": 90,
      "ª": 91,
      "«": 92,
      "®": 93,
      "¯": 94,
      "°": 95,
      "±": 96,
      "²": 97,
      "´": 98,
      "µ": 99,
      "¶": 100,
      "·": 101,
      "¸": 102,
      "¹": 103,
      "º": 104,
      "»": 105,
      "¼": 106,
      "½": 107,
      "¿": 108,
      "Â": 109,
      "Ã": 110,
      "Å": 111,
      "Î": 112,
      "Ï": 113,
      "á": 114,
      "â": 115,
      "ï": 116,
      "Ċ": 117,
      "č": 118,
      "Ġ": 119,
      "Ģ": 120,
      "ģ": 121,
      "Ĥ": 122,
      "ĥ": 123,
      "Ħ": 124,
      "ħ": 125,
      "Ĩ": 126,
      "ī": 127,
      "Į": 128,
      "Ĵ": 129,
      "ĵ": 130,
      "Ķ": 131,
      "ķ": 132,
      "ĸ": 133,
      "ĺ": 134,
      "Ļ": 135,
      "ľ": 136,
      "Ŀ": 137,
      "ł": 138,
      "Ń": 139,
      "Ġt": 140,
      "čĊ": 141,
      "he": 142,
      "Ġa": 143,
      "in": 144,
      "Ġthe": 145,
      "re": 146,
      "âĢ": 147,
      "Ġw": 148,
      "Ġs": 149,
      "ou": 150,
      "Ġo": 151,
      "nd": 152,
      "ed": 153,
      "is": 154,
      "ha": 155,
      "er": 156,
      "en": 157,
      "Ġm": 158,
      "on": 159,
      "or": 160,
      "Ġb": 161,
      "it": 162,
      "Ġf": 163,
      "Ġc": 164,
      "an": 165,
      "Ġof": 166,
      "Ġto": 167,
      "ar": 168,
      "ll": 169,
      "Ġd": 170,
      "es": 171,
      "âĢľ": 172,
      "ing": 173,
      "âĢĿ": 174,
      "Ġh": 175,
      "Ġand": 176,
      "Ġp": 177,
      "as": 178,
      "at": 179,
      "Ġin": 180,
      "Ġy": 181,
      "Ġhe": 182,
      "Ġha": 183,
      "Ġn": 184,
      "Ġl": 185,
      "Ġyou": 186,
      "om": 187,
      "ot": 188,
      "hat": 189,
      "id": 190,
      "ve": 191,
      "se": 192,
      "ĠI": 193,
      "Ġre": 194,
      "le": 195,
      "st": 196,
      "ce": 197,
      "Ġe": 198,
      "im": 199,
      "ent": 200,
      "Ġbe": 201,
      "ow": 202,
      "Ġg": 203,
      "ic": 204,
      "ly": 205,
      "Ġwh": 206,
      "Ġhis": 207,
      "Ġsa": 208,
      "Ġth": 209,
      "ut": 210,
      "Ġwas": 211,
      "ion": 212,
      "ld": 213,
      "Ġon": 214,
      "ad": 215,
      ".âĢĿ": 216,
      "ir": 217,
      "ith": 218,
      "al": 219,
      "Ġthat": 220,
      "ĠM": 221,
      "gh": 222,
      "ill": 223,
      "Ġnot": 224,
      "ri": 225,
      "Ġwith": 226,
      "Ġfor": 227,
      "Ġas": 228,
      "ver": 229,
      "Ġit": 230,
      "ro": 231,
      "The": 232,
      "Ġis": 233,
      "ra": 234,
      "et": 235,
      "Ġu": 236,
      "ere": 237,
      "ain": 238,
      "Ġat": 239,
      "ur": 240,
      "Ġhad": 241,
      "ter": 242,
      "Ġan": 243,
      "Ġst": 244,
      ",âĢĿ": 245,
      "Ġsaid": 246,
      "her": 247,
      "ct": 248,
      "ay": 249,
      "ĠâĢľ": 250,
      "Ġde": 251,
      "ght": 252,
      "Ġme": 253,
      "Ġse": 254,
      "Ġmy": 255,
      "li": 256,
      "am": 257,
      "ĠA": 258,
      "ould": 259,
      "Ġhim": 260,
      "and": 261,
      "?âĢĿ": 262,
      "ĠC": 263,
      "Ġhave": 264,
      "ich": 265,
      "ch": 266,
      "pe": 267,
      "âĢĻ": 268,
      "if": 269,
      "nt": 270,
      "ist": 271,
      "ess": 272,
      "ant": 273,
      "ke": 274,
      "ore": 275,
      "Ġwhich": 276,
      "il": 277,
      "ort": 278,
      "ĠĠ": 279,
      "the": 280,
      "ag": 281,
      "ell": 282,
      "âĢĶ": 283,
      "Ġcon": 284,
      "Ġdo": 285,
      "ĠThe": 286,
      "Ġex": 287,
      "Ġthis": 288,
      "red": 289,
      "Ġwho": 290,
      "Ġso": 291,
      "Ġby": 292,
      "qu": 293,
      "Ġsu": 294,
      "rom": 295,
      "oo": 296,
      "ount": 297,
      "our": 298,
      "te": 299,
      "res": 300,
      "ble": 301,
      "el": 302,
      "ous": 303,
      "ac": 304,
      "all": 305,
      "Ġbut": 306,
      "ard": 307,
      "out": 308,
      "ap": 309,
      "ul": 310,
      "ran": 311,
      "Ġher": 312,
      "Ġyour": 313,
      "th": 314,
      "ust": 315,
      "sel": 316,
      "ĠD": 317,
      "Ġk": 318,
      "Ġwill": 319,
      "ef": 320,
      "ation": 321,
      "Ġv": 322,
      "ome": 323,
      "ĠH": 324,
      "ast": 325,
      "ert": 326,
      "pp": 327,
      "Ġall": 328,
      "os": 329,
      "Ġfrom": 330,
      "Ġor": 331,
      "un": 332,
      "ers": 333,
      "Ġman": 334,
      "ĠP": 335,
      "Ġsh": 336,
      "Ġli": 337,
      "Ġare": 338,
      "to": 339,
      "Ġwere": 340,
      "est": 341,
      "ĠB": 342,
      "ĠG": 343,
      "us": 344,
      "em": 345,
      "art": 346,
      "ame": 347,
      "Ġal": 348,
      "one": 349,
      "ĠV": 350,
      "Ġwhe": 351,
      "ak": 352,
      "self": 353,
      "Ġthey": 354,
      "Ġne": 355,
      "hed": 356,
      "Ġno": 357,
      "Ġone": 358,
      "au": 359,
      "ars": 360,
      "ord": 361,
      "Ġrep": 362,
      "Ġkn": 363,
      "ind": 364,
      "very": 365,
      "Ġwe": 366,
      "ound": 367,
      "um": 368,
      "Ġcount": 369,
      "ng": 370,
      "ate": 371,
      "ck": 372,
      "urn": 373,
      "ight": 374,
      "ang": 375,
      "ĠF": 376,
      "ive": 377,
      "ine": 378,
      "ig": 379,
      "ered": 380,
      "ven": 381,
      "Ġwould": 382,
      "ong": 383,
      "ĠS": 384,
      "ved": 385,
      "ost": 386,
      "ass": 387,
      "Ġthen": 388,
      "cc": 389,
      "Ġcom": 390,
      "Ġpro": 391,
      "ĠT": 392,
      "Ã©": 393,
      "ure": 394,
      "ked": 395,
      "ge": 396,
      "Ġr": 397,
      "ect": 398,
      "Ġshe": 399,
      "Ġam": 400,
      "ol": 401,
      "Ġar": 402,
      "ish": 403,
      "van": 404,
      "Ġthem": 405,
      "Ġtheir": 406,
      "Ġfe": 407,
      "Ġbeen": 408,
      "ity": 409,
      "ĠĠĠĠ": 410,
      "Ġup": 411,
      "Ġle": 412,
      "Ġif": 413,
      "Ġab": 414,
      "Ġwhat": 415,
      "lied": 416,
      "Ġj": 417,
      "onte": 418,
      "Ġknow": 419,
      "Ġtw": 420,
      "ond": 421,
      "rist": 422,
      "angl": 423,
      "tain": 424,
      "han": 425,
      "ated": 426,
      "ake": 427,
      "able": 428,
      "ĠL": 429,
      "bert": 430,
      "Ġreplied": 431,
      "Ġad": 432,
      "of": 433,
      "Ġpl": 434,
      "ather": 435,
      "risto": 436,
      "ood": 437,
      "ie": 438,
      "ence": 439,
      "lo": 440,
      "len": 441,
      "!âĢĿ": 442,
      "ime": 443,
      "illef": 444,
      "illefort": 445,
      "Ġhas": 446,
      "Ġthere": 447,
      "ep": 448,
      "ance": 449,
      "Ġwhen": 450,
      "Ġro": 451,
      "ough": 452,
      ",\"": 453,
      "ĠCristo": 454,
      "Ã¨": 455,
      "Ġsha": 456,
      "Ġag": 457,
      "ru": 458,
      "pt": 459,
      "arvan": 460,
      "Ġus": 461,
      "lenarvan": 462,
      "ire": 463,
      "Ġaf": 464,
      "ĠW": 465,
      "Ġsee": 466,
      "Ġmad": 467,
      "ĠMor": 468,
      "No": 469,
      ".\"": 470,
      "end": 471,
      "ree": 472,
      "av": 473,
      "ĠHe": 474,
      "ile": 475,
      "ress": 476,
      "ĠE": 477,
      "Ġun": 478,
      "Ã¨s": 479,
      "Ġhand": 480,
      "Ġqu": 481,
      "ab": 482,
      "Ġmore": 483,
      "Ġ\"": 484,
      "ry": 485,
      "ĠMonte": 486,
      "Ġgo": 487,
      "You": 488,
      "Ġcould": 489,
      "ward": 490,
      "Ġim": 491,
      "Ġdis": 492,
      "me": 493,
      "reat": 494,
      "Ġcan": 495,
      "ave": 496,
      "ought": 497,
      "Yes": 498,
      "ther": 499,
      "Ġonly": 500,
      "fore": 501,
      "anglars": 502,
      "are": 503,
      "ide": 504,
      "ĠVillefort": 505,
      "ice": 506,
      "Ġdid": 507,
      "Ġper": 508,
      "nder": 509,
      "ried": 510,
      "age": 511,
      "his": 512,
      "ary": 513,
      "Ġtwo": 514,
      "Ġsp": 515,
      "ions": 516,
      "ach": 517,
      "other": 518,
      "ady": 519,
      "ment": 520,
      "ĠR": 521,
      "ace": 522,
      "ose": 523,
      "Ġyoung": 524,
      "Ġen": 525,
      "Ġday": 526,
      "Ġpo": 527,
      "Ġthan": 528,
      "Ġret": 529,
      "Ġany": 530,
      "Ġlike": 531,
      "rel": 532,
      "Ġtime": 533,
      "ĠGlenarvan": 534,
      "And": 535,
      "de": 536,
      "ite": 537,
      "Ġsome": 538,
      "âĢĺ": 539,
      "ci": 540,
      "ign": 541,
      "Ġcont": 542,
      "ally": 543,
      "hing": 544,
      "itt": 545,
      "Ġdes": 546,
      "pl": 547,
      "Ġinto": 548,
      "Ġrem": 549,
      "cl": 550,
      "ors": 551,
      "Ġout": 552,
      "Ġvery": 553,
      "Ġloo": 554,
      "lbert": 555,
      "you": 556,
      "ened": 557,
      "aptain": 558,
      "own": 559,
      "Ġshould": 560,
      "ĠDanglars": 561,
      "Ġsay": 562,
      "Ġhimself": 563,
      "oll": 564,
      "Ġra": 565,
      "Ġtoo": 566,
      "Ġnow": 567,
      "that": 568,
      "Ġfir": 569,
      "ness": 570,
      "Ġey": 571,
      "Ġthese": 572,
      "Ġpre": 573,
      "ced": 574,
      "ove": 575,
      "ared": 576,
      "Ġfri": 577,
      "Ġother": 578,
      "ful": 579,
      "antÃ¨s": 580,
      "Ġbo": 581,
      "hi": 582,
      "Ġpass": 583,
      "op": 584,
      "Ġsm": 585,
      "ne": 586,
      "Ġap": 587,
      "urned": 588,
      "oss": 589,
      "Ġmust": 590,
      "ving": 591,
      "for": 592,
      "ies": 593,
      "Ġacc": 594,
      "ise": 595,
      "00": 596,
      "wh": 597,
      "ves": 598,
      "ons": 599,
      "ff": 600,
      "Ġent": 601,
      "ink": 602,
      "Ġres": 603,
      "Ġfather": 604,
      "anel": 605,
      "be": 606,
      "ps": 607,
      "Ġlong": 608,
      "ian": 609,
      "aganel": 610,
      "man": 611,
      "Ġafter": 612,
      "alent": 613,
      "ĠIt": 614,
      "per": 615,
      "Ġcha": 616,
      "Ġmade": 617,
      "Ġshall": 618,
      "Ġagain": 619,
      "Ġover": 620,
      "Ġword": 621,
      "ĠMorrel": 622,
      "?\"": 623,
      "way": 624,
      "Ġunder": 625,
      "ath": 626,
      "Ġfriend": 627,
      "Ġpr": 628,
      "ĠAlbert": 629,
      "not": 630,
      "uch": 631,
      "ious": 632,
      "alentine": 633,
      "Ġbr": 634,
      "Ġfirst": 635,
      "oment": 636,
      "led": 637,
      "we": 638,
      "ack": 639,
      "pect": 640,
      "cha": 641,
      "mb": 642,
      "Ġeven": 643,
      "ĠMad": 644,
      "ible": 645,
      "ife": 646,
      "Ġupon": 647,
      "Ġcl": 648,
      "Ġour": 649,
      "ouse": 650,
      "ĠFran": 651,
      "ĠPaganel": 652,
      "med": 653,
      "Ġop": 654,
      "ied": 655,
      "Ġgr": 656,
      "ĠDantÃ¨s": 657,
      "What": 658,
      "Ġasked": 659,
      "air": 660,
      "ret": 661,
      "Ġbefore": 662,
      "Ġmoment": 663,
      "wards": 664,
      "Ġwithout": 665,
      "Ġbl": 666,
      "Ġcomp": 667,
      "ier": 668,
      "But": 669,
      "ull": 670,
      "Oh": 671,
      "Ġcar": 672,
      "wn": 673,
      "Ġser": 674,
      "ty": 675,
      "Ġeyes": 676,
      "od": 677,
      "Ġlet": 678,
      "ue": 679,
      "Ġseem": 680,
      "Ġhow": 681,
      "Ġbec": 682,
      "ud": 683,
      "Ġpres": 684,
      "owed": 685,
      "ever": 686,
      "Well": 687,
      "iz": 688,
      "Ġappe": 689,
      "Ġwor": 690,
      "Ġob": 691,
      "Ġsc": 692,
      "int": 693,
      "erous": 694,
      "Ġmay": 695,
      "Ġimp": 696,
      "Ġcried": 697,
      "Ġevery": 698,
      "Ġspe": 699,
      "cer": 700,
      "Ġpart": 701,
      "Ġgreat": 702,
      "Ġoff": 703,
      "ired": 704,
      "Ġwell": 705,
      "Ġmuch": 706,
      "Ġthr": 707,
      "ished": 708,
      "Ġbet": 709,
      "ince": 710,
      "Ġsir": 711,
      "Ġthink": 712,
      "ks": 713,
      "Ġabout": 714,
      "ia": 715,
      "It": 716,
      "Ġdoor": 717,
      "Ġri": 718,
      "aj": 719,
      "ning": 720,
      "!\"": 721,
      "old": 722,
      "ĠValentine": 723,
      "Ġass": 724,
      "ray": 725,
      ",âĢĶ": 726,
      "less": 727,
      "Ġsame": 728,
      "Ġtra": 729,
      "ued": 730,
      "Ġits": 731,
      "Ġhouse": 732,
      "ĠAnd": 733,
      "ait": 734,
      "ily": 735,
      "ĠN": 736,
      "ase": 737,
      "ail": 738,
      "ings": 739,
      "Ġsuch": 740,
      "hes": 741,
      "Ġwhere": 742,
      "Ġrec": 743,
      "Ġwat": 744,
      "ĠO": 745,
      "ĠBut": 746,
      "ĠĠĠĠĠĠĠĠ": 747,
      "Ġapp": 748,
      "Ġdear": 749,
      "king": 750,
      "Ġstill": 751,
      "Ġthought": 752,
      "ĠFranz": 753,
      "ertain": 754,
      "but": 755,
      "sw": 756,
      "'s": 757,
      "Ġatt": 758,
      "Ġcontin": 759,
      "og": 760,
      "Ġtowards": 761,
      "Ġgood": 762,
      "Ġcons": 763,
      "hy": 764,
      "Ġmost": 765,
      "Ġint": 766,
      "Ġwhile": 767,
      "Ġtell": 768,
      "Ġlast": 769,
      "Ġold": 770,
      "eft": 771,
      "ittle": 772,
      "Ġleft": 773,
      "with": 774,
      "Ġchi": 775,
      "Ġthree": 776,
      "ĠMadame": 777,
      "Ġpers": 778,
      "ause": 779,
      "con": 780,
      "ined": 781,
      "lie": 782,
      "Ġjust": 783,
      "mp": 784,
      "Ġmar": 785,
      "aint": 786,
      "ix": 787,
      "ajor": 788,
      "Ġown": 789,
      "Ġgl": 790,
      "Ġwhom": 791,
      "light": 792,
      "ult": 793,
      "Ġhere": 794,
      "ĠNo": 795,
      "oub": 796,
      "ison": 797,
      "Ġmight": 798,
      "oy": 799,
      "Ġhour": 800,
      "hen": 801,
      "Ġ_": 802,
      "ict": 803,
      "ces": 804,
      "Ġmean": 805,
      "ject": 806,
      "ex": 807,
      "Ġsec": 808,
      "Ġsaw": 809,
      "Ġmake": 810,
      "Ġdist": 811,
      "Ġnever": 812,
      "rew": 813,
      "Ġinst": 814,
      "cei": 815,
      "aderous": 816,
      "aderousse": 817,
      "aking": 818,
      "Ġadd": 819,
      "ĠâĢĺ": 820,
      "Ġtook": 821,
      "ber": 822,
      "ched": 823,
      "Ġhead": 824,
      "He": 825,
      "Ġfoll": 826,
      "Ġlittle": 827,
      "--": 828,
      "Ġord": 829,
      "Ġansw": 830,
      "aken": 831,
      "ently": 832,
      "Ġthose": 833,
      "act": 834,
      "Ġfl": 835,
      "Ġpe": 836,
      "ged": 837,
      "und": 838,
      "Ġarm": 839,
      "Ġtake": 840,
      "nded": 841,
      "ranc": 842,
      "fect": 843,
      "irt": 844,
      "Ġreturned": 845,
      "fort": 846,
      "vent": 847,
      "iff": 848,
      "ew": 849,
      "Ġcome": 850,
      "Ġremain": 851,
      "ili": 852,
      "so": 853,
      "Ġmajor": 854,
      "Ġname": 855,
      "Ġgu": 856,
      "cerf": 857,
      "ark": 858,
      "Ġheard": 859,
      "Ġseemed": 860,
      "ears": 861,
      "Ġexp": 862,
      "Ġexce": 863,
      "Ġvis": 864,
      "lf": 865,
      "most": 866,
      "Ġnothing": 867,
      "row": 868,
      "stand": 869,
      "Ġfound": 870,
      "Ġbeg": 871,
      "Ah": 872,
      "was": 873,
      "cy": 874,
      "une": 875,
      "ĠJ": 876,
      "amp": 877,
      "Ġsail": 878,
      "Ġcomm": 879,
      "Ġdown": 880,
      "Ġgra": 881,
      "oubt": 882,
      "ax": 883,
      "ick": 884,
      "riage": 885,
      "vid": 886,
      "ised": 887,
      "thing": 888,
      "Ġwords": 889,
      "ready": 890,
      "Ġthrough": 891,
      "can": 892,
      "Ġhapp": 893,
      "Ġsign": 894,
      "Ġposs": 895,
      "Ġend": 896,
      "Ġcontinued": 897,
      "ip": 898,
      "Ġhands": 899,
      "over": 900,
      "Ġter": 901,
      "ner": 902,
      "oice": 903,
      "ured": 904,
      "Ġway": 905,
      "aster": 906,
      "lock": 907,
      "Ġpa": 908,
      "ren": 909,
      "ither": 910,
      "Ġheart": 911,
      "Ġlife": 912,
      "ug": 913,
      "Ġcaptain": 914,
      "osed": 915,
      "com": 916,
      "Ġplace": 917,
      "ĠMorcerf": 918,
      "Ġes": 919,
      "Ġcall": 920,
      "ited": 921,
      "ition": 922,
      "ached": 923,
      "den": 924,
      "up": 925,
      "Ġtre": 926,
      "Ġgive": 927,
      "Ġroom": 928,
      "Ġnight": 929,
      "ĠCaptain": 930,
      "Ġconf": 931,
      "ory": 932,
      "Ġfind": 933,
      "ĠCaderousse": 934,
      "Ġsoon": 935,
      "irtier": 936,
      "ĠYou": 937,
      "Ġwish": 938,
      "Ġmen": 939,
      "augh": 940,
      "ceived": 941,
      "Ġke": 942,
      "Ġbeing": 943,
      "Ġfort": 944,
      "Ġseen": 945,
      "Ġwhose": 946,
      "Ġdra": 947,
      "Ġpassed": 948,
      "here": 949,
      "Ġlight": 950,
      "bÃ©": 951,
      ".]": 952,
      "Ġsince": 953,
      "Ġlooked": 954,
      "rancs": 955,
      "Ġac": 956,
      "ustr": 957,
      "ĠEd": 958,
      "Ġsupp": 959,
      "Ġserv": 960,
      "Ġchild": 961,
      "aris": 962,
      "Ġhor": 963,
      "let": 964,
      "land": 965,
      "ĠAt": 966,
      ".âĢĻ": 967,
      "mond": 968,
      "âĢľâĢĺ": 969,
      "uring": 970,
      "Ġright": 971,
      "Ġsur": 972,
      "atter": 973,
      "Then": 974,
      "Ġmyself": 975,
      "ately": 976,
      "At": 977,
      "pr": 978,
      "Ġwait": 979,
      "vers": 980,
      "aim": 981,
      "Ġwind": 982,
      "iss": 983,
      "Ġfell": 984,
      "rant": 985,
      "itu": 986,
      "rea": 987,
      "Ġple": 988,
      "Ġfew": 989,
      "az": 990,
      "erc": 991,
      "Ġref": 992,
      "Ġgi": 993,
      "Ġanother": 994,
      "ĠThey": 995,
      "Ġsil": 996,
      "had": 997,
      "Ġho": 998,
      "ote": 999,
      "Ġinter": 1000,
      "appe": 1001,
      "ss": 1002,
      "Ġwent": 1003,
      "Ġrest": 1004,
      "ations": 1005,
      "eau": 1006,
      "Ġco": 1007,
      "Ġcr": 1008,
      "Ġnat": 1009,
      "omet": 1010,
      "Ġsuff": 1011,
      "ca": 1012,
      "ger": 1013,
      "Ġinqu": 1014,
      "Ġyet": 1015,
      "ling": 1016,
      "ener": 1017,
      "Ġcour": 1018,
      "Ġvoice": 1019,
      "Ġleave": 1020,
      "ern": 1021,
      "Ġbar": 1022,
      "Ġind": 1023,
      "ways": 1024,
      "obert": 1025,
      "iness": 1026,
      "pped": 1027,
      "him": 1028,
      "Ġalone": 1029,
      "Ġreturn": 1030,
      "cum": 1031,
      "Ġfrancs": 1032,
      "Ġdeath": 1033,
      "Ġexcl": 1034,
      "les": 1035,
      "ple": 1036,
      "ower": 1037,
      "get": 1038,
      "Ġdoubt": 1039,
      "which": 1040,
      "ully": 1041,
      "haps": 1042,
      "Ġmin": 1043,
      "ating": 1044,
      "ton": 1045,
      "Ġturn": 1046,
      "Ġhalf": 1047,
      "ention": 1048,
      "ressed": 1049,
      "Ġson": 1050,
      "Ġonce": 1051,
      "Ġwr": 1052,
      "do": 1053,
      "igh": 1054,
      "undred": 1055,
      "Ġcame": 1056,
      "ilian": 1057,
      "Ġexcell": 1058,
      "Ġback": 1059,
      "imes": 1060,
      "axim": 1061,
      "arn": 1062,
      "My": 1063,
      "Ġfo": 1064,
      "Ġhaving": 1065,
      "ĠThis": 1066,
      "Ġletter": 1067,
      "pan": 1068,
      "Ġleast": 1069,
      "Ġagainst": 1070,
      "Ġunderstand": 1071,
      "pro": 1072,
      "Ġtr": 1073,
      "otion": 1074,
      "aximilian": 1075,
      "eb": 1076,
      "men": 1077,
      "ĠParis": 1078,
      "ween": 1079,
      "Ġpresent": 1080,
      "irl": 1081,
      "elt": 1082,
      "Ġopen": 1083,
      "âĢĶâĢĶ": 1084,
      "Ġfriends": 1085,
      "yr": 1086,
      "Ġbelie": 1087,
      "rap": 1088,
      "Ġarri": 1089,
      "ena": 1090,
      "Ġlook": 1091,
      "Ġsub": 1092,
      "Ġalmost": 1093,
      "Ã©d": 1094,
      "ois": 1095,
      "Ġtold": 1096,
      "Ġpur": 1097,
      "Ġreg": 1098,
      "Ġcompan": 1099,
      "ĠNoirtier": 1100,
      "tered": 1101,
      "ures": 1102,
      "orning": 1103,
      "Ġpoint": 1104,
      "Ġ1": 1105,
      "ene": 1106,
      "Ġcor": 1107,
      "Ġdep": 1108,
      "Ġspeak": 1109,
      "cess": 1110,
      "ser": 1111,
      "Ġyears": 1112,
      "Ġem": 1113,
      "rig": 1114,
      "elena": 1115,
      "Ġaway": 1116,
      "Ġmind": 1117,
      "Ġmother": 1118,
      "ute": 1119,
      "Ġtrave": 1120,
      "ercÃ©d": 1121,
      "ercÃ©dÃ¨s": 1122,
      "oud": 1123,
      "ĠRobert": 1124,
      "aimed": 1125,
      "Ġocc": 1126,
      "Ġdiff": 1127,
      "Ġpoor": 1128,
      "ĠAndrea": 1129,
      "ction": 1130,
      "angles": 1131,
      "Ġperson": 1132,
      ",âĢĻ": 1133,
      "Ġhon": 1134,
      "ott": 1135,
      "Ġeach": 1136,
      "alc": 1137,
      "ĠGrant": 1138,
      "Ġnew": 1139,
      "day": 1140,
      "Ġut": 1141,
      "Ġbre": 1142,
      "ĠIn": 1143,
      "ousand": 1144,
      "Ġgoing": 1145,
      "Ġcannot": 1146,
      "ens": 1147,
      "Ġmon": 1148,
      "aced": 1149,
      "ook": 1150,
      "clock": 1151,
      "ceed": 1152,
      "Ġform": 1153,
      "Ġyes": 1154,
      "Ġgave": 1155,
      "Ġstran": 1156,
      "ĠCount": 1157,
      "Ġprison": 1158,
      "champ": 1159,
      "ĠEdmond": 1160,
      "Ġcare": 1161,
      "Ġgirl": 1162,
      "ĠMangles": 1163,
      "ĠLady": 1164,
      "Ġaw": 1165,
      "ides": 1166,
      "Ġread": 1167,
      "owing": 1168,
      "elle": 1169,
      "Ġfeel": 1170,
      "Ġtherefore": 1171,
      "eauchamp": 1172,
      "Ġturned": 1173,
      "Ġprom": 1174,
      "Ġalways": 1175,
      "Ġappro": 1176,
      "Ġten": 1177,
      "Ġset": 1178,
      "Ġfour": 1179,
      "overed": 1180,
      "ĠHelena": 1181,
      "ec": 1182,
      "ear": 1183,
      "its": 1184,
      "oman": 1185,
      "ents": 1186,
      "ows": 1187,
      "Ġstre": 1188,
      "cted": 1189,
      "Ġquite": 1190,
      "count": 1191,
      "ank": 1192,
      "selves": 1193,
      "Ġhope": 1194,
      "Ġexclaimed": 1195,
      "âĢĶâĢĶâĢĿ": 1196,
      "ual": 1197,
      "hap": 1198,
      "ency": 1199,
      "Ġdone": 1200,
      "Ġappeared": 1201,
      "Do": 1202,
      "iv": 1203,
      "Ġmist": 1204,
      "Ġhundred": 1205,
      "Ġins": 1206,
      "Ġinde": 1207,
      "Ġdoes": 1208,
      "Ġentered": 1209,
      "have": 1210,
      "ĠabbÃ©": 1211,
      "Ġfive": 1212,
      "arm": 1213,
      "ross": 1214,
      "Ġfelt": 1215,
      "yrton": 1216,
      "ister": 1217,
      "ĠThen": 1218,
      "In": 1219,
      "aw": 1220,
      "Ġtaken": 1221,
      "oth": 1222,
      "Ġyourself": 1223,
      "hapter": 1224,
      "Ġlord": 1225,
      "000": 1226,
      "Ġcarriage": 1227,
      "Ġworld": 1228,
      "fully": 1229,
      "Ġide": 1230,
      "Ġquest": 1231,
      "aughter": 1232,
      "How": 1233,
      "That": 1234,
      "oun": 1235,
      "enty": 1236,
      "Ġext": 1237,
      "emois": 1238,
      "ably": 1239,
      "This": 1240,
      "lish": 1241,
      "su": 1242,
      "Ġdays": 1243,
      "orses": 1244,
      "emoiselle": 1245,
      "what": 1246,
      "Ġlove": 1247,
      "iden": 1248,
      "Ġfore": 1249,
      "Ġrequ": 1250,
      "Ġevening": 1251,
      "Ġbetween": 1252,
      "du": 1253,
      "Ġsent": 1254,
      "ular": 1255,
      "my": 1256,
      "Ġmorning": 1257,
      "Ġcertain": 1258,
      "ĠCh": 1259,
      "this": 1260,
      "Ġbed": 1261,
      "ized": 1262,
      "Ġfam": 1263,
      "Ġopened": 1264,
      "Siden": 1265,
      "Ġsea": 1266,
      "Sidenote": 1267,
      "aven": 1268,
      "oke": 1269,
      "Ġthus": 1270,
      "ĠMaximilian": 1271,
      "Ġstep": 1272,
      "ason": 1273,
      "Ġthousand": 1274,
      "Ġdead": 1275,
      "Ġalready": 1276,
      "Ġknew": 1277,
      "Ġadded": 1278,
      "io": 1279,
      "cept": 1280,
      "Ġfear": 1281,
      "no": 1282,
      "ased": 1283,
      "Ġlo": 1284,
      "Ġdisc": 1285,
      "Ġappear": 1286,
      "ins": 1287,
      "Ġwant": 1288,
      "arce": 1289,
      "ney": 1290,
      "Ġsomet": 1291,
      "ering": 1292,
      "ety": 1293,
      "cu": 1294,
      "entle": 1295,
      "als": 1296,
      "ery": 1297,
      "room": 1298,
      "appeared": 1299,
      "now": 1300,
      "sh": 1301,
      "Ġlost": 1302,
      "Ġthough": 1303,
      "uncan": 1304,
      "Ġindeed": 1305,
      "par": 1306,
      "Ġalso": 1307,
      "Ġlonger": 1308,
      "Ġanswered": 1309,
      "cri": 1310,
      "Ã¢": 1311,
      "Ġran": 1312,
      "Ġmur": 1313,
      "Ġste": 1314,
      "Ġvisit": 1315,
      "ebray": 1316,
      "xt": 1317,
      "Ġfall": 1318,
      "Ġthir": 1319,
      "Ġch": 1320,
      "Ġcal": 1321,
      "Ġdark": 1322,
      "ade": 1323,
      "Ġbelieve": 1324,
      "Ġface": 1325,
      "Ġstru": 1326,
      "ĠBeauchamp": 1327,
      "used": 1328,
      "read": 1329,
      "Ġeff": 1330,
      "ĠMercÃ©dÃ¨s": 1331,
      "Ġsto": 1332,
      "Ġmany": 1333,
      "Ġaff": 1334,
      "Ġaccom": 1335,
      "ĠĠĠĠĠĠĠĠĠĠĠĠĠĠĠĠ": 1336,
      "arcely": 1337,
      "Ġsw": 1338,
      "Ġsix": 1339,
      "Ġmis": 1340,
      "ossible": 1341,
      "Why": 1342,
      "sp": 1343,
      "avor": 1344,
      "..": 1345,
      "ken": 1346,
      "Ġput": 1347,
      "asure": 1348,
      "Ġeas": 1349,
      "Ġdel": 1350,
      "rue": 1351,
      "ments": 1352,
      "bed": 1353,
      "Ġpap": 1354,
      "ĠAyrton": 1355,
      "ĠGod": 1356,
      "Ġbetter": 1357,
      "Ġfortune": 1358,
      "orrow": 1359,
      "Ġinc": 1360,
      "Ġwhole": 1361,
      "Ġsmile": 1362,
      "pected": 1363,
      "Ġsecond": 1364,
      "ernand": 1365,
      "Ġsim": 1366,
      "Ġever": 1367,
      "ical": 1368,
      "rible": 1369,
      "Ġpale": 1370,
      "rench": 1371,
      "Ġlar": 1372,
      "ĠInd": 1373,
      "erest": 1374,
      "Ġremained": 1375,
      "Ã¢te": 1376,
      "aut": 1377,
      "Ġhear": 1378,
      "Ġlist": 1379,
      "Ġask": 1380,
      "ored": 1381,
      "Ġkind": 1382,
      "Ġadvan": 1383,
      "Ġorder": 1384,
      "Ġexcellency": 1385,
      "fe": 1386,
      "Ġhorses": 1387,
      "ants": 1388,
      "ieur": 1389,
      "Ã¢teau": 1390,
      "Ġcap": 1391,
      "Ġship": 1392,
      "Ġfeet": 1393,
      "onsieur": 1394,
      "Ġcond": 1395,
      "Ġduring": 1396,
      "Ġplaced": 1397,
      "Ġmeans": 1398,
      "Ġhonor": 1399,
      "ĠDuncan": 1400,
      "ement": 1401,
      "Ġexpress": 1402,
      "Ġcourse": 1403,
      "Ġmonth": 1404,
      "Mad": 1405,
      "Ġsk": 1406,
      "Ġrepe": 1407,
      "Ġreally": 1408,
      "Glenarvan": 1409,
      "Ġact": 1410,
      "Ġmo": 1411,
      "Ġmount": 1412,
      "Ġear": 1413,
      "anti": 1414,
      "form": 1415,
      "Ġinv": 1416,
      "Ġland": 1417,
      "illed": 1418,
      "Ġsmall": 1419,
      "Ġbaron": 1420,
      "son": 1421,
      "ided": 1422,
      "ident": 1423,
      "Ġperhaps": 1424,
      "Ġwife": 1425,
      "though": 1426,
      "Ġarms": 1427,
      "po": 1428,
      "will": 1429,
      "orm": 1430,
      "Ġdi": 1431,
      "Ġsum": 1432,
      "Ġsmil": 1433,
      "ild": 1434,
      "eng": 1435,
      "essel": 1436,
      "ustom": 1437,
      "Ġvessel": 1438,
      "Ã©e": 1439,
      "Ġperfect": 1440,
      "Ġinquired": 1441,
      "ead": 1442,
      "ollect": 1443,
      "Ġgrand": 1444,
      "pid": 1445,
      "Ġsle": 1446,
      "Ġsure": 1447,
      "Ġwater": 1448,
      "aid": 1449,
      "uri": 1450,
      "Ġside": 1451,
      "Ġwhy": 1452,
      "ific": 1453,
      "tend": 1454,
      "ĠDebray": 1455,
      "fter": 1456,
      "ib": 1457,
      "ucc": 1458,
      "Ġdet": 1459,
      "Ġprop": 1460,
      "Ġbecause": 1461,
      "ho": 1462,
      "Ġair": 1463,
      "oura": 1464,
      "hal": 1465,
      "arch": 1466,
      "Ġthing": 1467,
      "ution": 1468,
      "Ġnear": 1469,
      "Ġaround": 1470,
      "ft": 1471,
      "ounded": 1472,
      "Ġgiven": 1473,
      "Ġfoot": 1474,
      "Ġquestion": 1475,
      "ually": 1476,
      "arter": 1477,
      "Ġrel": 1478,
      "ĠAs": 1479,
      "Ġmadame": 1480,
      "ople": 1481,
      "mber": 1482,
      "Ġlarge": 1483,
      "Ġopp": 1484,
      "oney": 1485,
      "Ġnext": 1486,
      "ustration": 1487,
      "Ill": 1488,
      "ives": 1489,
      "Ġsl": 1490,
      "Ġdie": 1491,
      "Ġhast": 1492,
      "Ġhowever": 1493,
      "ograp": 1494,
      "Ġfollowed": 1495,
      "Ġcalled": 1496,
      "long": 1497,
      "Ġpower": 1498,
      "ards": 1499,
      "avalc": 1500,
      "Illustration": 1501,
      "Villefort": 1502,
      "Ġconv": 1503,
      "outh": 1504,
      "who": 1505,
      "Ġconsid": 1506,
      "fortun": 1507,
      "Ġsight": 1508,
      "tended": 1509,
      "ĠFrench": 1510,
      "aving": 1511,
      "Ġcalm": 1512,
      "avalcanti": 1513,
      "medi": 1514,
      "Ġsecret": 1515,
      "eneral": 1516,
      "Ġpri": 1517,
      "Ġless": 1518,
      "denly": 1519,
      "Ġidea": 1520,
      "your": 1521,
      "Ġwort": 1522,
      "ĠSaint": 1523,
      "ĠEng": 1524,
      "Ġdraw": 1525,
      "Ġhorse": 1526,
      "Ġtone": 1527,
      "Ġbank": 1528,
      "Ġfar": 1529,
      "Ġrather": 1530,
      "Ġrose": 1531,
      "Ġbecome": 1532,
      "II": 1533,
      "Ġill": 1534,
      "esides": 1535,
      "Ġreason": 1536,
      "Ġele": 1537,
      "utes": 1538,
      "Ġdev": 1539,
      "Ġpossess": 1540,
      "by": 1541,
      "mon": 1542,
      "Ġwoman": 1543,
      "Ġbra": 1544,
      "Ġdeep": 1545,
      "Ġrapid": 1546,
      "ogn": 1547,
      "To": 1548,
      "_,": 1549,
      "gg": 1550,
      "pre": 1551,
      "ates": 1552,
      "Ġinf": 1553,
      "aud": 1554,
      "aves": 1555,
      "Ġchar": 1556,
      "ial": 1557,
      "att": 1558,
      "Ġgentle": 1559,
      "Ġstart": 1560,
      "they": 1561,
      "tem": 1562,
      "ung": 1563,
      "ĠLord": 1564,
      "Ġwork": 1565,
      "Ġobser": 1566,
      "As": 1567,
      "Ġtri": 1568,
      "Ġcle": 1569,
      "Ġhar": 1570,
      "ĠIf": 1571,
      "They": 1572,
      "Ġstr": 1573,
      "Ġconvers": 1574,
      "Ġsud": 1575,
      "ĠWhat": 1576,
      "itude": 1577,
      "ĠChÃ¢teau": 1578,
      "band": 1579,
      "co": 1580,
      "ey": 1581,
      "wo": 1582,
      "Ġwall": 1583,
      "ctor": 1584,
      "ertucc": 1585,
      "Ġanswer": 1586,
      "Ġbegan": 1587,
      "ertuccio": 1588,
      "Monte": 1589,
      "Ġast": 1590,
      "Ġdire": 1591,
      "Ġscarcely": 1592,
      "ub": 1593,
      "Ġsat": 1594,
      "Ġche": 1595,
      "Ġreached": 1596,
      "Ġtwenty": 1597,
      "itted": 1598,
      "under": 1599,
      "ying": 1600,
      "Ġmag": 1601,
      "Ġmatter": 1602,
      "Ġmeet": 1603,
      "Ġlips": 1604,
      "Ġadv": 1605,
      "Ġve": 1606,
      "Ġchang": 1607,
      "Ġmoney": 1608,
      "Ġready": 1609,
      "there": 1610,
      "Ġadm": 1611,
      "Mor": 1612,
      "Ġsing": 1613,
      "ising": 1614,
      "Ġmaster": 1615,
      "Ġgaz": 1616,
      "Ġuse": 1617,
      "ĠThere": 1618,
      "ĠPro": 1619,
      "ĠFernand": 1620,
      "Ġenough": 1621,
      "If": 1622,
      "br": 1623,
      "dis": 1624,
      "ination": 1625,
      "Ġfull": 1626,
      "Ġdaughter": 1627,
      "ages": 1628,
      "umed": 1629,
      "cing": 1630,
      "Ġfin": 1631,
      "Ġfif": 1632,
      "Ġcast": 1633,
      "Ġclo": 1634,
      "osition": 1635,
      "Ġdesp": 1636,
      "Ġeye": 1637,
      "cap": 1638,
      "Ġsound": 1639,
      "Ġband": 1640,
      "uth": 1641,
      "vern": 1642,
      "ained": 1643,
      "Ġcountry": 1644,
      "Ġbrought": 1645,
      "Ġcompanions": 1646,
      "Ġdiffic": 1647,
      "Ġfire": 1648,
      "ility": 1649,
      "ĠHis": 1650,
      "Ġabs": 1651,
      "Ġinterest": 1652,
      "cape": 1653,
      "Ġsomething": 1654,
      "We": 1655,
      "eograp": 1656,
      "iol": 1657,
      "ĠCavalcanti": 1658,
      "Ġarrived": 1659,
      "01": 1660,
      "ny": 1661,
      "Ġboth": 1662,
      "arse": 1663,
      "Ġrock": 1664,
      "Ġbecame": 1665,
      "ĠEnglish": 1666,
      "yed": 1667,
      "Ġexpl": 1668,
      "Ġking": 1669,
      "Ġshore": 1670,
      "Ġprof": 1671,
      "Ġcontr": 1672,
      "Ġhours": 1673,
      "mediately": 1674,
      "ror": 1675,
      "There": 1676,
      "Ġanything": 1677,
      "Ġraised": 1678,
      "ĠMademoiselle": 1679,
      "Ġtravel": 1680,
      "der": 1681,
      "Ġtable": 1682,
      "ini": 1683,
      "rest": 1684,
      "Ġbest": 1685,
      "lled": 1686,
      "Ġquarter": 1687,
      "Ġpossible": 1688,
      "ron": 1689,
      "were": 1690,
      "ense": 1691,
      "Ġmill": 1692,
      "Ġpar": 1693,
      "Ġdec": 1694,
      "Ġamong": 1695,
      "airs": 1696,
      "Ġinstant": 1697,
      "Ġkeep": 1698,
      "Ġstopped": 1699,
      "Danglars": 1700,
      "Ren": 1701,
      "ped": 1702,
      "rief": 1703,
      "ains": 1704,
      "ourage": 1705,
      "cave": 1706,
      "from": 1707,
      "Ġ(": 1708,
      "Ġtrue": 1709,
      "Ġbro": 1710,
      "Ġreal": 1711,
      "ract": 1712,
      "Ġimpossible": 1713,
      "halcave": 1714,
      "father": 1715,
      "hind": 1716,
      "Ġcross": 1717,
      "Ġel": 1718,
      "aled": 1719,
      "ĠTh": 1720,
      "Ġblack": 1721,
      "Ġaston": 1722,
      "Not": 1723,
      "ting": 1724,
      "ues": 1725,
      "ities": 1726,
      "Ġcir": 1727,
      "Ġgeograp": 1728,
      "Ġann": 1729,
      "usband": 1730,
      "Ġthemselves": 1731,
      "Ġjour": 1732,
      "ĠWe": 1733,
      "come": 1734,
      "Ġtal": 1735,
      "Ġhum": 1736,
      "right": 1737,
      "Ġminutes": 1738,
      "Ġcol": 1739,
      "ceive": 1740,
      "ĠMac": 1741,
      "Ġmanner": 1742,
      "ĠIndian": 1743,
      "nce": 1744,
      "ted": 1745,
      "Ġhel": 1746,
      "Ġang": 1747,
      "Ã©n": 1748,
      "Ġjoy": 1749,
      "Ġremem": 1750,
      "Ġterrible": 1751,
      "Ġescape": 1752,
      "Ġsilence": 1753,
      "cessary": 1754,
      "Renaud": 1755,
      "cure": 1756,
      "head": 1757,
      "ĠAli": 1758,
      "Ġexam": 1759,
      "Ġneed": 1760,
      "Ġlive": 1761,
      "abb": 1762,
      "ream": 1763,
      "Ġreach": 1764,
      "Ġdoctor": 1765,
      "aces": 1766,
      "Ġdesce": 1767,
      "eneath": 1768,
      "Ġ2": 1769,
      "ĠX": 1770,
      "Ġfix": 1771,
      "Ġpay": 1772,
      "ash": 1773,
      "ices": 1774,
      "iful": 1775,
      "ume": 1776,
      "cket": 1777,
      "Ġground": 1778,
      "Ġwatch": 1779,
      "ugÃ©n": 1780,
      "Ġmurm": 1781,
      "ugÃ©nie": 1782,
      "ER": 1783,
      "Valentine": 1784,
      "kn": 1785,
      "val": 1786,
      "Ġwal": 1787,
      "Ġcur": 1788,
      "ans": 1789,
      "ĠMary": 1790,
      "Ġfamily": 1791,
      "tempt": 1792,
      "Ġbu": 1793,
      "ati": 1794,
      "Ġbeaut": 1795,
      "Ġsun": 1796,
      "02": 1797,
      "ining": 1798,
      "ĠIs": 1799,
      "Ġreceived": 1800,
      "ici": 1801,
      "ayd": 1802,
      "ntil": 1803,
      "arden": 1804,
      "Ġdisappeared": 1805,
      "DantÃ¨s": 1806,
      "Ġtran": 1807,
      "Ġtimes": 1808,
      "orn": 1809,
      "illes": 1810,
      "ĠShe": 1811,
      "Ġrich": 1812,
      "tained": 1813,
      "Ġattention": 1814,
      "cont": 1815,
      "ustral": 1816,
      "Ġstruck": 1817,
      "Ġsleep": 1818,
      "aydÃ©e": 1819,
      "Albert": 1820,
      "where": 1821,
      "Ġir": 1822,
      "ances": 1823,
      "Ġdrew": 1824,
      "Ġalong": 1825,
      "Ġeng": 1826,
      "Ġhappy": 1827,
      "well": 1828,
      "Ġmid": 1829,
      "Ġget": 1830,
      "them": 1831,
      "Ġexc": 1832,
      "ĠBar": 1833,
      "Ġboy": 1834,
      "Ġboat": 1835,
      "Ġboard": 1836,
      "Ġsailor": 1837,
      "Ġacqu": 1838,
      "eed": 1839,
      "uel": 1840,
      "Ġcause": 1841,
      "Ġdang": 1842,
      "Ġnor": 1843,
      "Ġred": 1844,
      "Ġevid": 1845,
      "ushed": 1846,
      "Ġothers": 1847,
      "ceeded": 1848,
      "fied": 1849,
      "ino": 1850,
      "Ġwished": 1851,
      "Ġfact": 1852,
      "Ġhusband": 1853,
      "Ġeight": 1854,
      "ĠBertuccio": 1855,
      "ishment": 1856,
      "Ġknown": 1857,
      "Ġgold": 1858,
      "Ġentire": 1859,
      "Ġstrange": 1860,
      "Ġaccompan": 1861,
      "Ġmet": 1862,
      "ann": 1863,
      "Ġforg": 1864,
      "iles": 1865,
      "Ġpeople": 1866,
      "Madame": 1867,
      "Ġrepeated": 1868,
      "Av": 1869,
      "Is": 1870,
      "dy": 1871,
      "Ġdest": 1872,
      "Ġanim": 1873,
      "Ġstud": 1874,
      "Ġalthough": 1875,
      "ĠSt": 1876,
      "Ġenc": 1877,
      "Ġpaper": 1878,
      "Ġconversation": 1879,
      "Ġgeographer": 1880,
      "rit": 1881,
      "Ġhold": 1882,
      "Ġhigh": 1883,
      "Ġheaven": 1884,
      "Ã©ran": 1885,
      "ignor": 1886,
      "Ġbring": 1887,
      "Ġturning": 1888,
      "Ġexpression": 1889,
      "MÃ©ran": 1890,
      "Ġtaking": 1891,
      "rem": 1892,
      "hand": 1893,
      "aria": 1894,
      "Ġdro": 1895,
      "Ġisland": 1896,
      "their": 1897,
      "Ġviol": 1898,
      "retched": 1899,
      "Ġbreak": 1900,
      "Ġjourney": 1901,
      "Come": 1902,
      "Nabb": 1903,
      "Ãī": 1904,
      "Ġtou": 1905,
      "itation": 1906,
      "Ġlad": 1907,
      "Ġshort": 1908,
      "ording": 1909,
      "ize": 1910,
      "Ġeverything": 1911,
      "Ġglass": 1912,
      "rigny": 1913,
      "Avrigny": 1914,
      "?âĢĻ": 1915,
      "When": 1916,
      "ele": 1917,
      "Ġcry": 1918,
      "Ġcase": 1919,
      "Ġchief": 1920,
      "Ġsailors": 1921,
      "Ġsurpr": 1922,
      "gether": 1923,
      "Ġfa": 1924,
      "Ġbehind": 1925,
      "Ġsearch": 1926,
      "ĠLu": 1927,
      "Ġseeing": 1928,
      "formed": 1929,
      "Ġrecogn": 1930,
      "ertainly": 1931,
      "Ġoccup": 1932,
      "Ġconsider": 1933,
      ",--": 1934,
      "Now": 1935,
      "Your": 1936,
      "aly": 1937,
      "would": 1938,
      "erm": 1939,
      "enance": 1940,
      "stood": 1941,
      "Ġconce": 1942,
      "ively": 1943,
      "ĠWil": 1944,
      "Ġimmediately": 1945,
      "Ġsaying": 1946,
      "peri": 1947,
      "Ġinstead": 1948,
      "Fran": 1949,
      "gr": 1950,
      "Ġport": 1951,
      "Ġheld": 1952,
      "Ġleng": 1953,
      "Ġwhite": 1954,
      "tern": 1955,
      "Ġanx": 1956,
      "Ġlooking": 1957,
      "Ġapart": 1958,
      "while": 1959,
      "Ġfellow": 1960,
      "Ġcoast": 1961,
      "Ġearth": 1962,
      "Ġsuddenly": 1963,
      "Ġclose": 1964,
      "arseilles": 1965,
      "?âĢĶ": 1966,
      "bor": 1967,
      "ob": 1968,
      "hall": 1969,
      "Ġnum": 1970,
      "uten": 1971,
      "Ġuntil": 1972,
      "ush": 1973,
      "Ġprob": 1974,
      "ield": 1975,
      "cious": 1976,
      "ĠFrance": 1977,
      "Ġorders": 1978,
      "Ġuttered": 1979,
      "Ġadvanced": 1980,
      "Ġcontrary": 1981,
      "ric": 1982,
      "she": 1983,
      "Ġbeneath": 1984,
      "Ġfat": 1985,
      "Ġfavor": 1986,
      "Ġhop": 1987,
      "Ġpray": 1988,
      "Ġthings": 1989,
      "ngth": 1990,
      "Ġaffect": 1991,
      "Ġsteps": 1992,
      "Chapter": 1993,
      "On": 1994,
      "inct": 1995,
      "happ": 1996,
      "Ġflo": 1997,
      "Ġfree": 1998,
      "Ġglo": 1999,
      "ĠChapter": 2000,
      "ĠThalcave": 2001,
      "ressing": 2002,
      "ĠRome": 2003,
      "So": 2004,
      "ening": 2005,
      "Ġpast": 2006,
      "veral": 2007,
      "like": 2008,
      "acht": 2009,
      "Ġdepart": 2010,
      "Ġmurmured": 2011,
      "go": 2012,
      "ouble": 2013,
      "Ġcourage": 2014,
      "aring": 2015,
      "lice": 2016,
      "resh": 2017,
      "akes": 2018,
      "Ġresol": 2019,
      "cumst": 2020,
      "Ġbaroness": 2021,
      "Ġlength": 2022,
      "cent": 2023,
      "mit": 2024,
      "reck": 2025,
      "Ġca": 2026,
      "ĠWhen": 2027,
      "hip": 2028,
      "Ġaccount": 2029,
      "Ġmonths": 2030,
      "Let": 2031,
      "Ġtill": 2032,
      "Ġpen": 2033,
      "ird": 2034,
      "erent": 2035,
      "Ġstory": 2036,
      "rupt": 2037,
      "Ġbox": 2038,
      "fortune": 2039,
      "Ġutter": 2040,
      "Morrel": 2041,
      "more": 2042,
      "ina": 2043,
      "Ġsitu": 2044,
      "Ġfail": 2045,
      "Ġemb": 2046,
      "Ġevent": 2047,
      "Ġherself": 2048,
      "Ġusual": 2049,
      "Ġstrong": 2050,
      "Ġdespair": 2051,
      "Ġfixed": 2052,
      "las": 2053,
      "rate": 2054,
      "Ġcold": 2055,
      "Ġyear": 2056,
      "isted": 2057,
      "Ġdocum": 2058,
      "Ġlead": 2059,
      "iew": 2060,
      "ĠEugÃ©nie": 2061,
      "Ġquick": 2062,
      "Ġkept": 2063,
      "Ġpromise": 2064,
      "Ġapproached": 2065,
      "ĠMacNabb": 2066,
      "master": 2067,
      "Ġswe": 2068,
      "Ġformed": 2069,
      "then": 2070,
      "Ġlearn": 2071,
      "Ġspoke": 2072,
      "Ġdesire": 2073,
      "been": 2074,
      "Ġcarried": 2075,
      "Ġservant": 2076,
      "Ġservice": 2077,
      "Ġclear": 2078,
      "eas": 2079,
      "mand": 2080,
      "ring": 2081,
      "Ġslight": 2082,
      "ital": 2083,
      "semb": 2084,
      "Ġeither": 2085,
      "ries": 2086,
      "Ġstood": 2087,
      "Ġsuc": 2088,
      "Ġnecessary": 2089,
      "Ġjo": 2090,
      "Ind": 2091,
      "epp": 2092,
      "gl": 2093,
      "vo": 2094,
      "Ġmer": 2095,
      "ĠHow": 2096,
      "Ġgovern": 2097,
      "Ġeffect": 2098,
      "known": 2099,
      "pass": 2100,
      "Ġmotion": 2101,
      "Ġfine": 2102,
      "Ġcovered": 2103,
      "Ġgarden": 2104,
      "Ġprocure": 2105,
      "Ġprep": 2106,
      "Ġclosed": 2107,
      "Ġcomple": 2108,
      "Ġcommand": 2109,
      "Ġsubject": 2110,
      "Ġprisoner": 2111,
      "ten": 2112,
      "unt": 2113,
      "Ġable": 2114,
      "Ġfan": 2115,
      "Ġhair": 2116,
      "Ġlow": 2117,
      "Ġgone": 2118,
      "etto": 2119,
      "Ġdelight": 2120,
      "ĠCar": 2121,
      "Ġru": 2122,
      "Ġroad": 2123,
      "Ġpocket": 2124,
      "Ġimport": 2125,
      "Ġmistaken": 2126,
      "Ġappearance": 2127,
      "bo": 2128,
      "ĠK": 2129,
      "Ġought": 2130,
      "ines": 2131,
      "Ġbus": 2132,
      "Ġcuri": 2133,
      "Ġpost": 2134,
      "ative": 2135,
      "rang": 2136,
      "efore": 2137,
      "ĠHaydÃ©e": 2138,
      "Ġwhether": 2139,
      "ccess": 2140,
      "Ġanyone": 2141,
      "Ġparty": 2142,
      "Ġplease": 2143,
      "Ġperfectly": 2144,
      "cons": 2145,
      "Ġpie": 2146,
      "ask": 2147,
      "ater": 2148,
      "Ġhat": 2149,
      "Ġsad": 2150,
      "Ġsal": 2151,
      "Ġstri": 2152,
      "ĠAll": 2153,
      "Ġcountess": 2154,
      "Ġround": 2155,
      "Ġobject": 2156,
      "Ġdistance": 2157,
      "Ġtem": 2158,
      "Ġyacht": 2159,
      "Ġgeneral": 2160,
      "Ġwithin": 2161,
      "Ġseveral": 2162,
      "Ġbrother": 2163,
      "vis": 2164,
      "requ": 2165,
      "ouis": 2166,
      "Ġmere": 2167,
      "Ġmine": 2168,
      "Ġcost": 2169,
      "ĠAustral": 2170,
      "Ġrespect": 2171,
      "ĠOn": 2172,
      "Ġpersons": 2173,
      "ission": 2174,
      "Ġrefle": 2175,
      "sm": 2176,
      "use": 2177,
      "ishes": 2178,
      "Ġattempt": 2179,
      "ĠDo": 2180,
      "Ġcountenance": 2181,
      "hance": 2182,
      "Ġpartic": 2183,
      "Ġpleasure": 2184,
      "Ġawait": 2185,
      "Ġdrawing": 2186,
      "fast": 2187,
      "sed": 2188,
      "Ġwit": 2189,
      "Ġmaking": 2190,
      "Ġdu": 2191,
      "ented": 2192,
      "ets": 2193,
      "pend": 2194,
      "agon": 2195,
      "Ġsold": 2196,
      "Ġabove": 2197,
      "ieu": 2198,
      "Ġaccept": 2199,
      "Ġhelp": 2200,
      "lb": 2201,
      "tic": 2202,
      "when": 2203,
      "Ġbur": 2204,
      "Ġgrief": 2205,
      "ayed": 2206,
      "Ġdef": 2207,
      "ool": 2208,
      "angu": 2209,
      "igned": 2210,
      "Ġoffic": 2211,
      "duced": 2212,
      "Ġbeautiful": 2213,
      "Ed": 2214,
      "des": 2215,
      "eal": 2216,
      "tre": 2217,
      "Ġbott": 2218,
      "itated": 2219,
      "Ġinform": 2220,
      "imp": 2221,
      "ural": 2222,
      "ardon": 2223,
      "Ġallow": 2224,
      "Ġplan": 2225,
      "Ġbody": 2226,
      "iously": 2227,
      "Ġopin": 2228,
      "Ġblood": 2229,
      "berg": 2230,
      "Ġstrength": 2231,
      "Ġdarkness": 2232,
      "Ġtravelers": 2233,
      "Franz": 2234,
      "Certainly": 2235,
      "Ġsister": 2236,
      "Ġmiles": 2237,
      "Ġled": 2238,
      "iced": 2239,
      "amond": 2240,
      "aged": 2241,
      "ager": 2242,
      "teen": 2243,
      "ulready": 2244,
      "ĠFaria": 2245,
      "Ġknows": 2246,
      "Ġdisp": 2247,
      "ĠRue": 2248,
      "Ġfirm": 2249,
      "Ġaccording": 2250,
      "Ġcloud": 2251,
      "Ġpresence": 2252,
      "Ġescap": 2253,
      "ounced": 2254,
      "Ġbanker": 2255,
      "utenberg": 2256,
      "lic": 2257,
      "Ġ5": 2258,
      "Ġsy": 2259,
      "oul": 2260,
      "Ġdr": 2261,
      "idence": 2262,
      "ĠMarseilles": 2263,
      "rois": 2264,
      "Ġrecollect": 2265,
      "Ġapproach": 2266,
      "eppino": 2267,
      "rec": 2268,
      "Ġconst": 2269,
      "ously": 2270,
      "osing": 2271,
      "Ġleaving": 2272,
      "ampa": 2273,
      "Ġsuffici": 2274,
      "iting": 2275,
      "Ġdream": 2276,
      "Ġlatter": 2277,
      "Ġspot": 2278,
      "Ġseems": 2279,
      "Ġwindow": 2280,
      "Ġ18": 2281,
      "Ġdifficult": 2282,
      "car": 2283,
      "ĠU": 2284,
      "Ġcab": 2285,
      "Ġlay": 2286,
      "Ġlose": 2287,
      "uty": 2288,
      "Ġforget": 2289,
      "ortun": 2290,
      "Ġneither": 2291,
      "Ġspite": 2292,
      "Ġprevent": 2293,
      "Ġprot": 2294,
      "Ġscene": 2295,
      "Ġfollow": 2296,
      "Ġcrime": 2297,
      "Ġpresented": 2298,
      "Ġgazed": 2299,
      "lu": 2300,
      "ming": 2301,
      "ĠY": 2302,
      "Ġbowed": 2303,
      "Ġhes": 2304,
      "omy": 2305,
      "Ġund": 2306,
      "Ġdecl": 2307,
      "istance": 2308,
      "rance": 2309,
      "off": 2310,
      "Ġplain": 2311,
      "ĠNow": 2312,
      "Ġhappiness": 2313,
      "Ġthirty": 2314,
      "Ġeasy": 2315,
      "Ġobserved": 2316,
      "Ġcircumst": 2317,
      "Ġhuman": 2318,
      "ĠWilson": 2319,
      "Sir": 2320,
      "pres": 2321,
      "Ġ3": 2322,
      "Ġmonsieur": 2323,
      "Ġfur": 2324,
      "erence": 2325,
      "Ġstand": 2326,
      "Ġnoble": 2327,
      "Ġunfortun": 2328,
      "Ġenem": 2329,
      "Ġunderstood": 2330,
      "Ġgrat": 2331,
      "Ġeasily": 2332,
      "ustomed": 2333,
      "IN": 2334,
      "ee": 2335,
      "ges": 2336,
      "morrow": 2337,
      "ned": 2338,
      "rent": 2339,
      "atagon": 2340,
      "ĠAb": 2341,
      "Ġfollowing": 2342,
      "Ġtrees": 2343,
      "Ġdiamond": 2344,
      "Ġworthy": 2345,
      "Ġopinion": 2346,
      "HE": 2347,
      "bs": 2348,
      "case": 2349,
      "mer": 2350,
      "sa": 2351,
      "sc": 2352,
      "some": 2353,
      "two": 2354,
      "wreck": 2355,
      "ĠOh": 2356,
      "Ġcart": 2357,
      "Ġdread": 2358,
      "ingu": 2359,
      "ĠMy": 2360,
      "Ġseat": 2361,
      "ĠCors": 2362,
      "Ġexpected": 2363,
      "Ġreply": 2364,
      "Ġbegin": 2365,
      "Ġwaiting": 2366,
      "Ġsmiling": 2367,
      "bl": 2368,
      "ean": 2369,
      "mman": 2370,
      "Ġtears": 2371,
      "Ġbreat": 2372,
      "Ġthrew": 2373,
      "Ġthick": 2374,
      "Ġitself": 2375,
      "Ġstra": 2376,
      "andon": 2377,
      "essed": 2378,
      "Ġperceived": 2379,
      "itting": 2380,
      "Ġprev": 2381,
      "ledge": 2382,
      "chang": 2383,
      "Ġglance": 2384,
      "ĠJu": 2385,
      "Ġpaid": 2386,
      "Ġdoubtless": 2387,
      "Ġemotion": 2388,
      "Ġstranger": 2389,
      "Ġcertainly": 2390,
      "Ġincre": 2391,
      "Ġsatis": 2392,
      "Ġfifty": 2393,
      "Ġremember": 2394,
      "mmanuel": 2395,
      "Very": 2396,
      "ches": 2397,
      "pir": 2398,
      "rid": 2399,
      "Ġfurn": 2400,
      "Ġdied": 2401,
      "Ġlaugh": 2402,
      "ster": 2403,
      "Ġbelong": 2404,
      "Ġforth": 2405,
      "Ġseized": 2406,
      "Ġsepar": 2407,
      "Ġexec": 2408,
      "Ġkill": 2409,
      "Ġshad": 2410,
      "rying": 2411,
      "Ġende": 2412,
      "nific": 2413,
      "oh": 2414,
      "pin": 2415,
      "spe": 2416,
      "Ġpol": 2417,
      "Ġincl": 2418,
      "Ġexpect": 2419,
      "Ġvain": 2420,
      "Ġcoming": 2421,
      "Ġuneas": 2422,
      "arent": 2423,
      "Ġafterwards": 2424,
      "Ġspeaking": 2425,
      "Ġtravell": 2426,
      "otten": 2427,
      "cuse": 2428,
      "Ġcondu": 2429,
      "Ġfloor": 2430,
      "ES": 2431,
      "bet": 2432,
      "Ġbad": 2433,
      "Ġtogether": 2434,
      "Ġhome": 2435,
      "atures": 2436,
      "Ġequ": 2437,
      "alian": 2438,
      "Ġnoise": 2439,
      "Ġobli": 2440,
      "Ġtremb": 2441,
      "Ġopening": 2442,
      "should": 2443,
      "Ãīpin": 2444,
      "Ġcomplete": 2445,
      "Ġwitness": 2446,
      "Ãīpinay": 2447,
      "All": 2448,
      "aff": 2449,
      "pose": 2450,
      "Ġtor": 2451,
      "inary": 2452,
      "Ġmention": 2453,
      "Ġfra": 2454,
      "Ġoften": 2455,
      "atch": 2456,
      "Ġheav": 2457,
      "vel": 2458,
      "Ġsend": 2459,
      "antly": 2460,
      "seless": 2461,
      "Ġcompl": 2462,
      "Ġjud": 2463,
      "Ġimag": 2464,
      "Ġpoison": 2465,
      "Ġfeeling": 2466,
      "Ġrequest": 2467,
      "Ġthird": 2468,
      "Ġconvict": 2469,
      "Ġdocument": 2470,
      "Who": 2471,
      "gu": 2472,
      "how": 2473,
      "Ġwar": 2474,
      "Ġwaves": 2475,
      "Ġpity": 2476,
      "omen": 2477,
      "Ġnotary": 2478,
      "osp": 2479,
      "ĠVampa": 2480,
      "ĠĠĠĠĠ": 2481,
      "Ġresumed": 2482,
      "Ġlistened": 2483,
      "Ġrapidly": 2484,
      "Ġelse": 2485,
      "Here": 2486,
      "Ġcra": 2487,
      "Ġpun": 2488,
      "asion": 2489,
      "Ġlaw": 2490,
      "vere": 2491,
      "rac": 2492,
      "terday": 2493,
      "cho": 2494,
      "Ġexist": 2495,
      "osity": 2496,
      "Ġshud": 2497,
      "ĠLa": 2498,
      "Ġspo": 2499,
      "Ġserved": 2500,
      "ainted": 2501,
      "ecause": 2502,
      "Ġgentleman": 2503,
      "Ġdescended": 2504,
      "Ġmidst": 2505,
      "Indeed": 2506,
      "bit": 2507,
      "oni": 2508,
      "Ġfair": 2509,
      "lly": 2510,
      "Ġph": 2511,
      "alth": 2512,
      "Ġdemand": 2513,
      "ĠCha": 2514,
      "Ġconcer": 2515,
      "ĠFor": 2516,
      "Ġexcept": 2517,
      "Ġsmiled": 2518,
      "Ġmillions": 2519,
      "ritann": 2520,
      "bour": 2521,
      "bod": 2522,
      "could": 2523,
      "house": 2524,
      "jo": 2525,
      "Ġsort": 2526,
      "Ġmouth": 2527,
      "ony": 2528,
      "only": 2529,
      "Ġcut": 2530,
      "Ġcrew": 2531,
      "Ġdin": 2532,
      "Ġpal": 2533,
      "Ġseven": 2534,
      "peci": 2535,
      "Ġsuccess": 2536,
      "ĠPeppino": 2537,
      "ĠPatagon": 2538,
      "berty": 2539,
      "ĠWell": 2540,
      "aircase": 2541,
      "Ġintro": 2542,
      "Ġchildren": 2543,
      "Ġcourt": 2544,
      "himself": 2545,
      "Ġdifferent": 2546,
      "Ġprocureur": 2547,
      "Ġescaped": 2548,
      "nificent": 2549,
      "ritannia": 2550,
      "Because": 2551,
      "Caderousse": 2552,
      "Ex": 2553,
      "For": 2554,
      "Paganel": 2555,
      "after": 2556,
      "Ġwishes": 2557,
      "Ġfilled": 2558,
      "Ġcustom": 2559,
      "oted": 2560,
      "ĠMulready": 2561,
      "Ġreport": 2562,
      "Ġpassing": 2563,
      "Ġoffered": 2564,
      "Ġnatives": 2565,
      "Ġtruth": 2566,
      "Ġdiscovered": 2567,
      "Ġladies": 2568,
      "!_": 2569,
      "HA": 2570,
      "bar": 2571,
      "five": 2572,
      "gra": 2573,
      "tist": 2574,
      "Ġfresh": 2575,
      "uture": 2576,
      "Ġris": 2577,
      "Ġabandon": 2578,
      "place": 2579,
      "Ġchair": 2580,
      "Ġmarriage": 2581,
      ".âĢĻâĢĿ": 2582,
      "Ġworth": 2583,
      "racter": 2584,
      "EN": 2585,
      "Have": 2586,
      "TER": 2587,
      "ms": 2588,
      "ock": 2589,
      "ys": 2590,
      "Ġte": 2591,
      "inal": 2592,
      "Ġmass": 2593,
      "Ġmove": 2594,
      "Ġcre": 2595,
      "Ġhung": 2596,
      "Ġpain": 2597,
      "Ġline": 2598,
      "Ġemp": 2599,
      "acqu": 2600,
      "ests": 2601,
      "igi": 2602,
      "Ġenter": 2603,
      "Ġassure": 2604,
      ",âĢĶâĢľ": 2605,
      "Ġeffort": 2606,
      "Ġdelay": 2607,
      "Ġdirect": 2608,
      "Ġchange": 2609,
      "ĠProject": 2610,
      "Ġentirely": 2611,
      "Ġbreakfast": 2612,
      "Ġprepared": 2613,
      "By": 2614,
      "ai": 2615,
      "loo": 2616,
      "vol": 2617,
      "erved": 2618,
      "Ġbesides": 2619,
      "Ġdri": 2620,
      "Ġposition": 2621,
      "Ġnam": 2622,
      "Ġlangu": 2623,
      "ots": 2624,
      "Ġeager": 2625,
      "Ġsave": 2626,
      "isten": 2627,
      "ellig": 2628,
      "Ġextended": 2629,
      "ĠEmmanuel": 2630,
      "ĠItalian": 2631,
      "Ġprin": 2632,
      "ĠOne": 2633,
      "Ġstudy": 2634,
      "Ġprotect": 2635,
      "Are": 2636,
      "fer": 2637,
      "ging": 2638,
      "Ġsens": 2639,
      "Ġchance": 2640,
      "Ġhost": 2641,
      "sequ": 2642,
      "ett": 2643,
      "liar": 2644,
      "ified": 2645,
      "again": 2646,
      "Ġsol": 2647,
      "osite": 2648,
      "Ġjail": 2649,
      "cip": 2650,
      "Ġmoments": 2651,
      "izon": 2652,
      "Ġwatched": 2653,
      "Ġsilent": 2654,
      "culiar": 2655,
      "Ġaffair": 2656,
      "ibly": 2657,
      "Ġaccompanied": 2658,
      "With": 2659,
      "iety": 2660,
      "oc": 2661,
      "occ": 2662,
      "Ġtree": 2663,
      "hel": 2664,
      "rep": 2665,
      "ones": 2666,
      "Ġce": 2667,
      "Ġpath": 2668,
      "icated": 2669,
      "ality": 2670,
      "riend": 2671,
      "ribut": 2672,
      "Ġforced": 2673,
      "Ġexact": 2674,
      "ulty": 2675,
      "Ġliving": 2676,
      "uss": 2677,
      "ĠSp": 2678,
      "ishing": 2679,
      "Ġagree": 2680,
      "Ġunknown": 2681,
      "Ġfright": 2682,
      "Ġthoughts": 2683,
      "Ġsimple": 2684,
      "Ġshipwreck": 2685,
      "Ġsituation": 2686,
      "pecially": 2687,
      "Go": 2688,
      "min": 2689,
      "than": 2690,
      "Ġfuture": 2691,
      "Ġcent": 2692,
      "any": 2693,
      "sec": 2694,
      "ĠAr": 2695,
      "istol": 2696,
      "ĠThese": 2697,
      "elve": 2698,
      "erted": 2699,
      "ĠGutenberg": 2700,
      "Ġrun": 2701,
      "arer": 2702,
      "Ġchamber": 2703,
      "Ġpresident": 2704,
      "without": 2705,
      "expected": 2706,
      "Ġhappened": 2707,
      "ĠEdward": 2708,
      "Ġwaited": 2709,
      "Ġcompanion": 2710,
      "Ġmountain": 2711,
      "Ġforgotten": 2712,
      "Ġgloomy": 2713,
      "Ġquickly": 2714,
      "Ġimportant": 2715,
      "every": 2716,
      "eks": 2717,
      "iet": 2718,
      "joy": 2719,
      "mother": 2720,
      "said": 2721,
      "Ġsorrow": 2722,
      "Ġrend": 2723,
      "owards": 2724,
      "Ġgall": 2725,
      "aded": 2726,
      "adually": 2727,
      "Ġstone": 2728,
      "Ġdeck": 2729,
      "acc": 2730,
      "Ġval": 2731,
      "Ġarrest": 2732,
      "Ġpolice": 2733,
      "ciety": 2734,
      "Ġpassage": 2735,
      "nothing": 2736,
      "Ġserious": 2737,
      "Ġjustice": 2738,
      "Ġterror": 2739,
      "Ġminister": 2740,
      "Ġexcellent": 2741,
      "Ġmisfortune": 2742,
      "Ġsky": 2743,
      "Ġnearly": 2744,
      "Ġastonishment": 2745,
      "Ġiron": 2746,
      "ĠBarrois": 2747,
      "Ġbusiness": 2748,
      "Cristo": 2749,
      "before": 2750,
      "even": 2751,
      "gs": 2752,
      "uil": 2753,
      "Ġ4": 2754,
      "Ġest": 2755,
      "reed": 2756,
      "hara": 2757,
      "Ġbes": 2758,
      "itter": 2759,
      "ingly": 2760,
      "Ġeat": 2761,
      "owers": 2762,
      "irst": 2763,
      "Ġstaircase": 2764,
      "Ġseated": 2765,
      "Ġproof": 2766,
      "Ġrid": 2767,
      "Ġrushed": 2768,
      "Ġfeatures": 2769,
      "rud": 2770,
      "Ġseek": 2771,
      "Noirtier": 2772,
      "enedetto": 2773,
      "new": 2774,
      "ĠItaly": 2775,
      "Ġcorner": 2776,
      "However": 2777,
      "Ġsingular": 2778,
      "Ġquartermaster": 2779,
      "Ġdanger": 2780,
      "Ġtouched": 2781,
      "Ġoccupied": 2782,
      "Ġapartment": 2783,
      "Ġnumber": 2784,
      "ole": 2785,
      "Ġage": 2786,
      "âĢľ_": 2787,
      "Ġhid": 2788,
      "lend": 2789,
      "keep": 2790,
      "Ġva": 2791,
      "astr": 2792,
      "unge": 2793,
      "Ġlean": 2794,
      "Ġbrow": 2795,
      "rowd": 2796,
      "Ġservants": 2797,
      "Ġnatural": 2798,
      "Ġprisoners": 2799,
      "Ġsteward": 2800,
      "Ġstarted": 2801,
      "Ġsingle": 2802,
      "happy": 2803,
      "Ġmotionless": 2804,
      "ĠAbbÃ©": 2805,
      "ĠJulie": 2806,
      "friend": 2807,
      "time": 2808,
      "Ġed": 2809,
      "inter": 2810,
      "Ġwood": 2811,
      "Ġmod": 2812,
      "Ġtomorrow": 2813,
      "Ġpat": 2814,
      "ator": 2815,
      "ature": 2816,
      "Ġlab": 2817,
      "Ġreceive": 2818,
      "eresa": 2819,
      "live": 2820,
      "ĠAust": 2821,
      "Ġvent": 2822,
      "Ġview": 2823,
      "Ġliberty": 2824,
      "ĠBritannia": 2825,
      "ĠSpan": 2826,
      "ĠTom": 2827,
      "Ġoffer": 2828,
      "Ġriver": 2829,
      "----": 2830,
      "Ġsupport": 2831,
      "Ġinterrupt": 2832,
      "Ġpurpose": 2833,
      "Ġpapers": 2834,
      "Ġshores": 2835,
      "Ġdeparture": 2836,
      "Edmond": 2837,
      "night": 2838,
      "ship": 2839,
      "nding": 2840,
      "Ġfate": 2841,
      "Ġdon": 2842,
      "asp": 2843,
      "cean": 2844,
      "Ġstorm": 2845,
      "redit": 2846,
      "els": 2847,
      "Ġneigh": 2848,
      "Ġjew": 2849,
      "reek": 2850,
      "Ġfortun": 2851,
      "Ġsuppose": 2852,
      "Ġhorizon": 2853,
      "appear": 2854,
      "Ġyesterday": 2855,
      "Ġcapt": 2856,
      "ĠEnglishman": 2857,
      "Ġencamp": 2858,
      "Ġmerely": 2859,
      "Phara": 2860,
      "Wh": 2861,
      "che": 2862,
      "dle": 2863,
      "ires": 2864,
      "reme": 2865,
      "has": 2866,
      "enced": 2867,
      "Ġbrig": 2868,
      "Ġfast": 2869,
      "Ġhur": 2870,
      "Ġyield": 2871,
      "see": 2872,
      "Ġgener": 2873,
      "Ġsaved": 2874,
      "Ġdoing": 2875,
      "Ġvict": 2876,
      "ĠSo": 2877,
      "Ġago": 2878,
      "Ġthank": 2879,
      "Ġremark": 2880,
      "Ġcharacter": 2881,
      "Ġeveryone": 2882,
      "Ġguard": 2883,
      "Ġforehead": 2884,
      "Ġrequire": 2885,
      "point": 2886,
      "Ġlearned": 2887,
      "Ġsucceeded": 2888,
      "Ġjailer": 2889,
      "Pharaon": 2890,
      "An": 2891,
      "since": 2892,
      "tra": 2893,
      "ĠZ": 2894,
      "Ġsought": 2895,
      "haust": 2896,
      "Ġball": 2897,
      "Ġbright": 2898,
      "Ġfrequ": 2899,
      "Ġdressed": 2900,
      "Ġpistol": 2901,
      "Ġinformed": 2902,
      "Ġlady": 2903,
      "ĠMa": 2904,
      "illi": 2905,
      "rose": 2906,
      "urred": 2907,
      "these": 2908,
      "quis": 2909,
      "ulf": 2910,
      "esty": 2911,
      "Ġshar": 2912,
      "Ġused": 2913,
      "Ġdescri": 2914,
      "Ġaccustomed": 2915,
      "Ġblow": 2916,
      "Ġwaters": 2917,
      "Ġpeculiar": 2918,
      "Ġwindows": 2919,
      "Ġgiving": 2920,
      "Ġinquir": 2921,
      "Ġoccasion": 2922,
      "III": 2923,
      "Ġmagnificent": 2924,
      "Ġadmir": 2925,
      "ĠAustralia": 2926,
      "Ġdinner": 2927,
      "astrini": 2928,
      "AN": 2929,
      "Th": 2930,
      "bre": 2931,
      "conte": 2932,
      "iers": 2933,
      "tory": 2934,
      "Ġsoul": 2935,
      "Ġcrowd": 2936,
      "Ġtop": 2937,
      "Ġduty": 2938,
      "Ġpressed": 2939,
      "Ġpardon": 2940,
      "str": 2941,
      "Ġuseless": 2942,
      "istrate": 2943,
      "iled": 2944,
      "que": 2945,
      "ĠHere": 2946,
      "ĠSc": 2947,
      "ĠTHE": 2948,
      "Ġarran": 2949,
      "Ġtwelve": 2950,
      "onder": 2951,
      "ĠNap": 2952,
      "ĠNew": 2953,
      "Ġgrave": 2954,
      "Ġnews": 2955,
      "Ġformer": 2956,
      "Ġsett": 2957,
      "Ġfallen": 2958,
      "Ġstrugg": 2959,
      "Ġslow": 2960,
      "Ġbrave": 2961,
      "Ġbroken": 2962,
      "Ġtalk": 2963,
      "Ġcurtain": 2964,
      "body": 2965,
      "foll": 2966,
      "side": 2967,
      "ts": 2968,
      "uge": 2969,
      "Ġaid": 2970,
      "Ġtoday": 2971,
      "Ġhot": 2972,
      "Ġnar": 2973,
      "Ġlim": 2974,
      "uted": 2975,
      "rop": 2976,
      "Ġstate": 2977,
      "ists": 2978,
      "apart": 2979,
      "Ġshowed": 2980,
      "usion": 2981,
      "Ġrising": 2982,
      "Ġsplend": 2983,
      "itten": 2984,
      "Ġblue": 2985,
      "izing": 2986,
      "ails": 2987,
      "Ġdistant": 2988,
      "ranches": 2989,
      "vidence": 2990,
      "upon": 2991,
      "Ġconfidence": 2992,
      "raph": 2993,
      "Ġregret": 2994,
      "ounce": 2995,
      "Ġaccompl": 2996,
      "Ġdecided": 2997,
      "ĠIsland": 2998,
      "Ġevents": 2999,
      "His": 3000,
      "certain": 3001,
      "fact": 3002,
      "lini": 3003,
      "part": 3004,
      "zz": 3005,
      "Ġtry": 3006,
      "Ġobe": 3007,
      "racted": 3008,
      "ĠAl": 3009,
      "ilar": 3010,
      "ĠLe": 3011,
      "ĠLouis": 3012,
      "ression": 3013,
      "Ġmarry": 3014,
      "Ġespecially": 3015,
      "Ġsurr": 3016,
      "Ġnature": 3017,
      "Ġcarefully": 3018,
      "Ġinspect": 3019,
      "ĠĠĠĠĠĠĠĠĠĠĠĠĠĠĠĠĠĠĠĠĠĠĠĠĠĠĠĠĠĠĠĠ": 3020,
      "Ġopposite": 3021,
      "ront": 3022,
      "Ġprobably": 3023,
      "Ġfatig": 3024,
      "Ġemplo": 3025,
      "Alas": 3026,
      "CHA": 3027,
      "St": 3028,
      "Where": 3029,
      "dered": 3030,
      "pond": 3031,
      "Ġspect": 3032,
      "Ġdeg": 3033,
      "Ġvol": 3034,
      "Ġvoy": 3035,
      "umb": 3036,
      "Ġcomes": 3037,
      "Ġproject": 3038,
      "cien": 3039,
      "Ġobtain": 3040,
      "Ġassass": 3041,
      "Ġarrival": 3042,
      "Ġpromised": 3043,
      "Ġextreme": 3044,
      "Ġhastened": 3045,
      "Ġgentlemen": 3046,
      "Ġrocks": 3047,
      "Ġprofound": 3048,
      "Ġfaith": 3049,
      "Ġinformation": 3050,
      "ortunity": 3051,
      "Ġstanding": 3052,
      "ĠCorsic": 3053,
      "Ġspoken": 3054,
      "She": 3055,
      "tw": 3056,
      "ze": 3057,
      "Ġtend": 3058,
      "erv": 3059,
      "erable": 3060,
      "onor": 3061,
      "Ġbird": 3062,
      "atal": 3063,
      "ĠMr": 3064,
      "ury": 3065,
      "Ġexperi": 3066,
      "Ġsole": 3067,
      "acing": 3068,
      "Ġvar": 3069,
      "Ġvast": 3070,
      "Ġshow": 3071,
      "ĠTo": 3072,
      "peror": 3073,
      "Ġassured": 3074,
      "Ġintellig": 3075,
      "exp": 3076,
      "Ġdistur": 3077,
      "Ġsometimes": 3078,
      "Ġdeterm": 3079,
      "Ġdifficulty": 3080,
      "contin": 3081,
      "Ġevident": 3082,
      "Ġdestro": 3083,
      "Ġsurprise": 3084,
      "ĠLuigi": 3085,
      "Ġhopes": 3086,
      "ĠHowever": 3087,
      "ealand": 3088,
      "ĠSpanish": 3089,
      "!âĢĶ": 3090,
      "PTER": 3091,
      "bb": 3092,
      "gged": 3093,
      "ka": 3094,
      "lan": 3095,
      "mar": 3096,
      "pse": 3097,
      "shall": 3098,
      "erhaps": 3099,
      "Ġbound": 3100,
      "Ġfal": 3101,
      "Ġdying": 3102,
      "Ġbear": 3103,
      "Ġgro": 3104,
      "Ġhistory": 3105,
      "chi": 3106,
      "Ġexchang": 3107,
      "alley": 3108,
      "ĠPastrini": 3109,
      "ĠSignor": 3110,
      "ĠĠĠĠĠĠ": 3111,
      "ĠHeaven": 3112,
      "Ġpreca": 3113,
      "Ġresult": 3114,
      "Ġgreatest": 3115,
      "Ġcommun": 3116,
      "Ġpriv": 3117,
      "Ġhard": 3118,
      "Ġtrans": 3119,
      "Ġconceal": 3120,
      "Ġgovernor": 3121,
      "Ġofficer": 3122,
      "Ġlanguage": 3123,
      "ĠAustin": 3124,
      "CHAPTER": 3125,
      "!âĢĻ": 3126,
      "Did": 3127,
      "ek": 3128,
      "ply": 3129,
      "wor": 3130,
      "Ġmain": 3131,
      "Ġcollect": 3132,
      "Ġlaid": 3133,
      "rope": 3134,
      "Ġmyster": 3135,
      "ching": 3136,
      "âĢĶâĢľ": 3137,
      "acy": 3138,
      "aptist": 3139,
      "cknow": 3140,
      "Ġthanks": 3141,
      "Ġappears": 3142,
      "Ġattack": 3143,
      "Ġguil": 3144,
      "Ġrestra": 3145,
      "Ġsuffer": 3146,
      "Ġempt": 3147,
      "Ġloved": 3148,
      "Ġgrandfather": 3149,
      "Ġmeeting": 3150,
      "Ġrecognized": 3151,
      "Ġunfortunate": 3152,
      "Ġpolit": 3153,
      "Captain": 3154,
      "did": 3155,
      "dep": 3156,
      "sued": 3157,
      "vi": 3158,
      "Ġming": 3159,
      "Ġmus": 3160,
      "Ġcat": 3161,
      "uttered": 3162,
      "Ġforward": 3163,
      "Ġsusp": 3164,
      "ulous": 3165,
      "Ġkilled": 3166,
      "ĠPal": 3167,
      "usoni": 3168,
      "Ġperm": 3169,
      "ailed": 3170,
      "Ġmeaning": 3171,
      "Ġlisten": 3172,
      "Ġcrossed": 3173,
      "ĠIndians": 3174,
      "Ġconcealed": 3175,
      "Ġsufficient": 3176,
      "ohn": 3177,
      "Good": 3178,
      "ding": 3179,
      "pers": 3180,
      "âĦ": 3181,
      "Ġavo": 3182,
      "Ġwomen": 3183,
      "asant": 3184,
      "ically": 3185,
      "Ġsav": 3186,
      "Ġdeceived": 3187,
      "Ġalarm": 3188,
      "Ġkne": 3189,
      "urning": 3190,
      "Ġproceed": 3191,
      "ĠTeresa": 3192,
      "Ġretired": 3193,
      "Ġshoulders": 3194,
      "ians": 3195,
      "Ġbecom": 3196,
      "compan": 3197,
      "Ġconfess": 3198,
      "Ġacross": 3199,
      "Ġbreast": 3200,
      "Ġideas": 3201,
      "Ġpriest": 3202,
      "Ġinflu": 3203,
      "Ġadvant": 3204,
      "Ġengaged": 3205,
      "Ġviolent": 3206,
      "Ġfault": 3207,
      "Ġaffection": 3208,
      "Ġcaused": 3209,
      "Ġparticular": 3210,
      "Ġheavy": 3211,
      "Ġinterrupted": 3212,
      "Ġinspector": 3213,
      "aptistin": 3214,
      "âĦ¢": 3215,
      "),": 3216,
      "03": 3217,
      "MercÃ©dÃ¨s": 3218,
      "cle": 3219,
      "know": 3220,
      "ls": 3221,
      "oes": 3222,
      "towards": 3223,
      "Ġ&": 3224,
      "inc": 3225,
      "into": 3226,
      "Ġmed": 3227,
      "Ġmakes": 3228,
      "Ġfig": 3229,
      "Ġcredit": 3230,
      "ano": 3231,
      "Ġintended": 3232,
      "Ġlate": 3233,
      "stru": 3234,
      "Ġev": 3235,
      "Ġgate": 3236,
      "eth": 3237,
      "ĠAn": 3238,
      "pping": 3239,
      "ĠBenedetto": 3240,
      "ĠLet": 3241,
      "ĠWhy": 3242,
      "isely": 3243,
      "Ġgradually": 3244,
      "Ġspeed": 3245,
      "conf": 3246,
      "Ġmarried": 3247,
      "Ġdistingu": 3248,
      "Ġpointed": 3249,
      "Ġmagistrate": 3250,
      "Ġadvice": 3251,
      "Ġastonished": 3252,
      "Ġsweet": 3253,
      "Ġpiece": 3254,
      "Ġcircumstances": 3255,
      "Ġjudge": 3256,
      "Ġvalet": 3257,
      "Maximilian": 3258,
      "Monsieur": 3259,
      "_.": 3260,
      "poss": 3261,
      "spect": 3262,
      "take": 3263,
      "Ġbranches": 3264,
      "Ġfing": 3265,
      "Ġcell": 3266,
      "Ġdress": 3267,
      "step": 3268,
      "Ġbell": 3269,
      "ille": 3270,
      "Ġstretched": 3271,
      "ĠCa": 3272,
      "pelled": 3273,
      "acle": 3274,
      "uls": 3275,
      "ĠBusoni": 3276,
      "Ġfeared": 3277,
      "Ġprepar": 3278,
      "Ġentrance": 3279,
      "Ġspec": 3280,
      "Ġthinking": 3281,
      "ajesty": 3282,
      "Ġguide": 3283,
      "vided": 3284,
      "Ġpurcha": 3285,
      "Ġaware": 3286,
      "Ġmistake": 3287,
      "Ġopportunity": 3288,
      "Ġpowerful": 3289,
      "Ġchanged": 3290,
      "Ġmillion": 3291,
      "ĠXV": 3292,
      "Ġburst": 3293,
      "Ġshadow": 3294,
      "Ġobliged": 3295,
      "OR": 3296,
      "Pro": 3297,
      "Re": 3298,
      "Will": 3299,
      "een": 3300,
      "face": 3301,
      "just": 3302,
      "must": 3303,
      "pap": 3304,
      "uous": 3305,
      "Ġtall": 3306,
      "Ġtried": 3307,
      "Ġarose": 3308,
      "Ġwild": 3309,
      "Ġcreat": 3310,
      "anks": 3311,
      "Ġtomb": 3312,
      "Ġdunge": 3313,
      "Ġinha": 3314,
      "Ġanch": 3315,
      "antic": 3316,
      "Ġyours": 3317,
      "thr": 3318,
      "Ġallowed": 3319,
      "osure": 3320,
      "Ġneg": 3321,
      "aught": 3322,
      "Ġamount": 3323,
      "olute": 3324,
      "Ġbetray": 3325,
      "Ġtreasure": 3326,
      "Ġsuffered": 3327,
      "Ġregard": 3328,
      "Ġcorpse": 3329,
      "Ġstreet": 3330,
      "Ġmountains": 3331,
      "Ġfinished": 3332,
      "Ġexamined": 3333,
      "Ġanxious": 3334,
      "Ġarranged": 3335,
      "Listen": 3336,
      "Never": 3337,
      "law": 3338,
      "mou": 3339,
      "rot": 3340,
      "urope": 3341,
      "word": 3342,
      "heard": 3343,
      "Ġwa": 3344,
      "Ġwound": 3345,
      "Ġsigh": 3346,
      "erve": 3347,
      "Ġmir": 3348,
      "Ġcop": 3349,
      "anina": 3350,
      "Ġdouble": 3351,
      "Ġpaces": 3352,
      "Ġintend": 3353,
      "Ġgen": 3354,
      "Ġgain": 3355,
      "Ġgest": 3356,
      "icate": 3357,
      "rier": 3358,
      "ĠAN": 3359,
      "ift": 3360,
      "key": 3361,
      "ague": 3362,
      "Ġconsequ": 3363,
      "Ġvill": 3364,
      "Ġlived": 3365,
      "Ġknife": 3366,
      "cles": 3367,
      "Ġpron": 3368,
      "Ġthrown": 3369,
      "hys": 3370,
      "standing": 3371,
      "Ġinterp": 3372,
      "Ġwrong": 3373,
      "Mademoiselle": 3374,
      "Ġwalls": 3375,
      "Nothing": 3376,
      "Ġrememb": 3377,
      "Ġevidently": 3378,
      "Ġsurprised": 3379,
      "Ġcuriosity": 3380,
      "Ġincreased": 3381,
      "ĠPatagonian": 3382,
      "Ġintrodu": 3383,
      "Ġrendered": 3384,
      "Ġneighbor": 3385,
      "Ġvictim": 3386,
      "Ġvoyage": 3387,
      "Ġfalse": 3388,
      ";âĢĿ": 3389,
      "AR": 3390,
      "ON": 3391,
      "nat": 3392,
      "yond": 3393,
      "Ġer": 3394,
      "Ġacknow": 3395,
      "reg": 3396,
      "Ġwine": 3397,
      "oup": 3398,
      "iter": 3399,
      "itable": 3400,
      "Ġpict": 3401,
      "Ġheight": 3402,
      "ada": 3403,
      "Ġasce": 3404,
      "Ġmem": 3405,
      "Ġself": 3406,
      "ĠAh": 3407,
      "ĠCome": 3408,
      "ĠCatal": 3409,
      "Ġexhaust": 3410,
      "thought": 3411,
      "ump": 3412,
      "Ġring": 3413,
      "ected": 3414,
      "avored": 3415,
      "Ġsomewhat": 3416,
      "uddenly": 3417,
      "ĠNot": 3418,
      "mense": 3419,
      "Ġstream": 3420,
      "Ġbandits": 3421,
      "Ġresolved": 3422,
      "Ġfanci": 3423,
      "visions": 3424,
      "Ġdrink": 3425,
      "Ġenemy": 3426,
      "Ġendeavor": 3427,
      "ĠZealand": 3428,
      "Ġhotel": 3429,
      "Ġmysterious": 3430,
      "Ġsuspic": 3431,
      "Kou": 3432,
      "OU": 3433,
      "Of": 3434,
      "One": 3435,
      "Than": 3436,
      "first": 3437,
      "low": 3438,
      "mount": 3439,
      "made": 3440,
      "oved": 3441,
      "pon": 3442,
      "ura": 3443,
      "uck": 3444,
      "heart": 3445,
      "reen": 3446,
      "Ġden": 3447,
      "Ġpati": 3448,
      "Ġla": 3449,
      "oms": 3450,
      "leep": 3451,
      "rived": 3452,
      "ĠAfter": 3453,
      "Ġsociety": 3454,
      "ulated": 3455,
      "Ġshru": 3456,
      "ested": 3457,
      "Ġplay": 3458,
      "Ġunable": 3459,
      "cience": 3460,
      "Ġaddress": 3461,
      "Ġordered": 3462,
      "Ġcrown": 3463,
      "Ġwritten": 3464,
      "uteuil": 3465,
      "Ġsimilar": 3466,
      "ormous": 3467,
      "Ġwatching": 3468,
      "Ġaccompany": 3469,
      "Ġanimals": 3470,
      "Ġclouds": 3471,
      "Ġcabin": 3472,
      "Ġbeginning": 3473,
      "Ġconduct": 3474,
      "ĠMaor": 3475,
      "Ġslowly": 3476,
      "Koumou": 3477,
      "daughter": 3478,
      "fety": 3479,
      "iast": 3480,
      "ium": 3481,
      "oint": 3482,
      "ises": 3483,
      "ont": 3484,
      "Ġbitter": 3485,
      "Ġfront": 3486,
      "anced": 3487,
      "armed": 3488,
      "arily": 3489,
      "Ġhut": 3490,
      "asped": 3491,
      "Ġnine": 3492,
      "Ġbeyond": 3493,
      "Ġgend": 3494,
      "Ġsacri": 3495,
      "Ġsafe": 3496,
      "ĠMiss": 3497,
      "rab": 3498,
      "Ġstro": 3499,
      "ellow": 3500,
      "ths": 3501,
      "ĠBesides": 3502,
      "ĠGreek": 3503,
      "ordinary": 3504,
      "Ġcomfort": 3505,
      "Ã©es": 3506,
      "about": 3507,
      "Ġdispl": 3508,
      "young": 3509,
      "Ġcarry": 3510,
      "Ġassistance": 3511,
      "Ġrecall": 3512,
      "Ġowner": 3513,
      "ĠJohn": 3514,
      "Ġsignal": 3515,
      "Ġcoach": 3516,
      "Ġquestions": 3517,
      "...": 3518,
      "Ġcharming": 3519,
      "ublic": 3520,
      "uthor": 3521,
      "Ġrecognize": 3522,
      "Ġbreath": 3523,
      "Ġsatisfied": 3524,
      "Ġseparated": 3525,
      "Ġtrembling": 3526,
      "Ġexistence": 3527,
      "Ġknees": 3528,
      "After": 3529,
      "ale": 3530,
      "aire": 3531,
      "came": 3532,
      "fo": 3533,
      "fle": 3534,
      "gent": 3535,
      "might": 3536,
      "moment": 3537,
      "oe": 3538,
      "vres": 3539,
      "Ġtit": 3540,
      "inced": 3541,
      "oured": 3542,
      "isp": 3543,
      "Ġmour": 3544,
      "Ġfight": 3545,
      "lling": 3546,
      "Ġnort": 3547,
      "seen": 3548,
      "Ġearn": 3549,
      "Ġgot": 3550,
      "Ġthreat": 3551,
      "ify": 3552,
      "Ġconve": 3553,
      "ĠBon": 3554,
      "Ġproved": 3555,
      "Ġproceeded": 3556,
      "Ġunexpected": 3557,
      "Ġspring": 3558,
      "cient": 3559,
      "Ġentreat": 3560,
      "Ġgreatly": 3561,
      "Ġrecom": 3562,
      "Ġapparent": 3563,
      "hens": 3564,
      "Ġaddressed": 3565,
      "Ġcommon": 3566,
      "Ġsupper": 3567,
      "Ġnative": 3568,
      "Ġwrote": 3569,
      "door": 3570,
      "board": 3571,
      "choly": 3572,
      "Ġconcerning": 3573,
      "chief": 3574,
      "ah": 3575,
      "dra": 3576,
      "hold": 3577,
      "Ġauthor": 3578,
      "enge": 3579,
      "Ġben": 3580,
      "Ġpier": 3581,
      "Ġphys": 3582,
      "ases": 3583,
      "aste": 3584,
      "Ġinn": 3585,
      "Ġnone": 3586,
      "otto": 3587,
      "Ġreve": 3588,
      "icked": 3589,
      "Ġaside": 3590,
      "Ġstop": 3591,
      "ĠAre": 3592,
      "Ġsuper": 3593,
      "elbour": 3594,
      "emed": 3595,
      "Ġweak": 3596,
      "Ġfever": 3597,
      "Ġimper": 3598,
      "Ġimmense": 3599,
      "Ġenjoy": 3600,
      "Ġenormous": 3601,
      "Andrea": 3602,
      "Ġsmoke": 3603,
      "never": 3604,
      "ailor": 3605,
      "oyce": 3606,
      "Ġcoat": 3607,
      "Ġwriting": 3608,
      "Ġemperor": 3609,
      "coat": 3610,
      "Ġfifteen": 3611,
      "Ġabsence": 3612,
      "Ġanimal": 3613,
      "Ġpenet": 3614,
      "Ġapproaching": 3615,
      "Ġundert": 3616,
      "Ġfurther": 3617,
      "Ġdreadful": 3618,
      "Ġestab": 3619,
      "oleon": 3620,
      "Ġhidden": 3621,
      "----\"": 3622,
      "Ġgenerally": 3623,
      "illiant": 3624,
      "Ġavoid": 3625,
      "Ġadvantage": 3626,
      "elbourne": 3627,
      "found": 3628,
      "great": 3629,
      "past": 3630,
      "say": 3631,
      "uc": 3632,
      "yes": 3633,
      "Ġwarm": 3634,
      "Ġsouth": 3635,
      "Ġocean": 3636,
      "eness": 3637,
      "orse": 3638,
      "Ġfaint": 3639,
      "Ġcity": 3640,
      "arry": 3641,
      "asc": 3642,
      "Ġloud": 3643,
      "still": 3644,
      "imate": 3645,
      "Ġbeat": 3646,
      "Ġnotice": 3647,
      "quest": 3648,
      "Ġshut": 3649,
      "ĠBen": 3650,
      "ushing": 3651,
      "arther": 3652,
      "cks": 3653,
      "cked": 3654,
      "Ġshel": 3655,
      "ption": 3656,
      "ĠWith": 3657,
      "Ġquiet": 3658,
      "Ġsprang": 3659,
      "ĠRoman": 3660,
      "Ġlikely": 3661,
      "Ġrays": 3662,
      "Ġproud": 3663,
      "Ġimpati": 3664,
      "Ġguests": 3665,
      "ĠJac": 3666,
      "ĠJoyce": 3667,
      "Ġbelieved": 3668,
      "Ġpossession": 3669,
      "Ġannounced": 3670,
      "ĠLucien": 3671,
      "perior": 3672,
      "Ġpieces": 3673,
      "Ġabandoned": 3674,
      "Ġceased": 3675,
      "Ġfrequently": 3676,
      "Ġempty": 3677,
      "Ġdungeon": 3678,
      "Count": 3679,
      "Every": 3680,
      "bited": 3681,
      "ker": 3682,
      "little": 3683,
      "ov": 3684,
      "pri": 3685,
      "ught": 3686,
      "Ġignor": 3687,
      "Ġtort": 3688,
      "Ġav": 3689,
      "Ġaction": 3690,
      "inst": 3691,
      "Ġwretched": 3692,
      "Ġmess": 3693,
      "orney": 3694,
      "Ġfold": 3695,
      "Ġfulf": 3696,
      "Ġcru": 3697,
      "anation": 3698,
      "athe": 3699,
      "Ġlower": 3700,
      "Ġrender": 3701,
      "Ġrecei": 3702,
      "Ġresemb": 3703,
      "erer": 3704,
      "Ġattend": 3705,
      "Ġstat": 3706,
      "ĠAuteuil": 3707,
      "agues": 3708,
      "âĢĶâĢĺ": 3709,
      "ĠTheir": 3710,
      "eful": 3711,
      "Ġproduced": 3712,
      "Ġwhatever": 3713,
      "ĠEurope": 3714,
      "Ġunhappy": 3715,
      "Ġspir": 3716,
      "opo": 3717,
      "uded": 3718,
      "Ġviscount": 3719,
      "ampas": 3720,
      "ample": 3721,
      "astern": 3722,
      "Ġtrust": 3723,
      "Ġextra": 3724,
      "Ġmoved": 3725,
      "Ġdevoted": 3726,
      "Ġpossessed": 3727,
      "Ġdirection": 3728,
      "ĠProvidence": 3729,
      "Ġcolor": 3730,
      "ashion": 3731,
      "Ġwalked": 3732,
      "Ġanxiety": 3733,
      "Ġhoped": 3734,
      "ĠYanina": 3735,
      "piration": 3736,
      "Ġteeth": 3737,
      "Ġpainful": 3738,
      "Ġsplendid": 3739,
      "Ġassassin": 3740,
      "Ġguilty": 3741,
      "Ar": 3742,
      "TI": 3743,
      "bad": 3744,
      "fl": 3745,
      "kes": 3746,
      "mn": 3747,
      "mend": 3748,
      "much": 3749,
      "vation": 3750,
      "wise": 3751,
      "whel": 3752,
      "Ġox": 3753,
      "arked": 3754,
      "Ġdry": 3755,
      "Ġlover": 3756,
      "ics": 3757,
      "Ġsafety": 3758,
      "ĠMonsieur": 3759,
      "Ġnoticed": 3760,
      "Ġforce": 3761,
      "ctions": 3762,
      "amm": 3763,
      "ession": 3764,
      "ilos": 3765,
      "Ġcontain": 3766,
      "appro": 3767,
      "Ġvig": 3768,
      "venge": 3769,
      "ĠWho": 3770,
      "ability": 3771,
      "Ġprefer": 3772,
      "ĠOF": 3773,
      "Ġinstinct": 3774,
      "Ġterms": 3775,
      "Ġdrawn": 3776,
      "azz": 3777,
      "Ġoccurred": 3778,
      "Ġfeelings": 3779,
      "ivity": 3780,
      "Ġaffairs": 3781,
      "Ġadvance": 3782,
      "Ġcondem": 3783,
      "Ġmounted": 3784,
      "Ġhastily": 3785,
      "attle": 3786,
      "Ġsudden": 3787,
      "Ġinstantly": 3788,
      "Ġconsiderable": 3789,
      "Ġfailed": 3790,
      "Ġtemp": 3791,
      "trees": 3792,
      "Ġexecution": 3793,
      "Ġcompletely": 3794,
      "Ġmentioned": 3795,
      "Ġfrag": 3796,
      "Ġnamed": 3797,
      "keeper": 3798,
      "Ġjewell": 3799,
      "twenty": 3800,
      "Ġtender": 3801,
      "Ġmingled": 3802,
      "Ġsavages": 3803,
      "Ġinfluence": 3804,
      "ilosop": 3805,
      ".,": 3806,
      "dist": 3807,
      "gress": 3808,
      "mill": 3809,
      "sing": 3810,
      "zed": 3811,
      "Ġver": 3812,
      "inett": 3813,
      "ouka": 3814,
      "Ġhither": 3815,
      "asing": 3816,
      "ators": 3817,
      "iment": 3818,
      "Ġgar": 3819,
      "ication": 3820,
      "utions": 3821,
      "Ġmelan": 3822,
      "aming": 3823,
      "Ġconn": 3824,
      "Ġcontained": 3825,
      "Ġexcuse": 3826,
      "Ġsuperior": 3827,
      "oose": 3828,
      "rank": 3829,
      "Ġshook": 3830,
      "ĠBaptistin": 3831,
      "ĠFrom": 3832,
      "Ġknowledge": 3833,
      "Ġrolled": 3834,
      "ruly": 3835,
      "Ġener": 3836,
      "Ġgrass": 3837,
      "Ġblind": 3838,
      "oubled": 3839,
      "Ġsigned": 3840,
      "Ġcrim": 3841,
      "Ġdiscover": 3842,
      "Ġlistening": 3843,
      "Ġcapital": 3844,
      "Ġrepeat": 3845,
      "ibility": 3846,
      "Ġdeeply": 3847,
      "Ġcharge": 3848,
      "Morcerf": 3849,
      "Ġreality": 3850,
      "Ġholding": 3851,
      "ĠCarconte": 3852,
      "Ġcostume": 3853,
      "lba": 3854,
      "lbinett": 3855,
      "Ġgratitude": 3856,
      "ING": 3857,
      "Ġprevious": 3858,
      "Ġuneasiness": 3859,
      "Ġconvicts": 3860,
      "Ġmelancholy": 3861,
      "Be": 3862,
      "cond": 3863,
      "gi": 3864,
      "ior": 3865,
      "ience": 3866,
      "ler": 3867,
      "sur": 3868,
      "tell": 3869,
      "held": 3870,
      "Ġsitting": 3871,
      "ories": 3872,
      "Ġcries": 3873,
      "ats": 3874,
      "Ġere": 3875,
      "Ġgun": 3876,
      "Ġsand": 3877,
      "ills": 3878,
      "rified": 3879,
      "These": 3880,
      "urity": 3881,
      "Ġsty": 3882,
      "anted": 3883,
      "iling": 3884,
      "Ġconcl": 3885,
      "Ġkiss": 3886,
      "order": 3887,
      "Ġweight": 3888,
      "ighed": 3889,
      "Ġprove": 3890,
      "Ġprovisions": 3891,
      "Ġknowing": 3892,
      "Ġseeking": 3893,
      "Ġdesired": 3894,
      "Ġlooks": 3895,
      "Ġsays": 3896,
      "why": 3897,
      "Ġprince": 3898,
      "chant": 3899,
      "Ġrefuse": 3900,
      "Ġhonest": 3901,
      "ival": 3902,
      "suff": 3903,
      "Ġrequired": 3904,
      "Ġrelated": 3905,
      "Ġconsidered": 3906,
      "fortunes": 3907,
      "Ġeleven": 3908,
      "Ġwalking": 3909,
      "Ġdangerous": 3910,
      "Ġdelighted": 3911,
      "ĠKai": 3912,
      "Ġcurious": 3913,
      "Ġbottom": 3914,
      "Ġbottle": 3915,
      "Ġtraveller": 3916,
      "Ġeagerly": 3917,
      "Ġsharp": 3918,
      "ĠCape": 3919,
      "ĠXVIII": 3920,
      "Ġtitle": 3921,
      "500": 3922,
      "During": 3923,
      "From": 3924,
      "Fernand": 3925,
      "Saint": 3926,
      "True": 3927,
      "ded": 3928,
      "oor": 3929,
      "port": 3930,
      "view": 3931,
      "Ġ7": 3932,
      "half": 3933,
      "haouka": 3934,
      "Ġpor": 3935,
      "Ġyouth": 3936,
      "stairs": 3937,
      "Ġur": 3938,
      "asts": 3939,
      "astle": 3940,
      "osit": 3941,
      "ĠBay": 3942,
      "Ġraising": 3943,
      "pera": 3944,
      "Ġovercome": 3945,
      "char": 3946,
      "chair": 3947,
      "Ġtraces": 3948,
      "aintance": 3949,
      "Ġgrace": 3950,
      "Ġkey": 3951,
      "prison": 3952,
      "Ġindiff": 3953,
      "Ġtrouble": 3954,
      "Ġfamous": 3955,
      "Ġafford": 3956,
      "....": 3957,
      "ĠFrenchman": 3958,
      "Ġbandit": 3959,
      "Ġburied": 3960,
      "Ġapartments": 3961,
      "Ġsucceed": 3962,
      "Ġjoin": 3963,
      "Ġgovernment": 3964,
      "Ġlaughing": 3965,
      "ĠNapoleon": 3966,
      "followed": 3967,
      "steps": 3968,
      "Ġmemory": 3969,
      "Ġsacrif": 3970,
      "ED": 3971,
      "Paris": 3972,
      "ST": 3973,
      "gy": 3974,
      "gers": 3975,
      "hour": 3976,
      "ivid": 3977,
      "rat": 3978,
      "sha": 3979,
      "ences": 3980,
      "Ġcover": 3981,
      "ara": 3982,
      "Ġhun": 3983,
      "Ġprud": 3984,
      "Ġheat": 3985,
      "othes": 3986,
      "Ġsake": 3987,
      "irm": 3988,
      "Ġstairs": 3989,
      "hern": 3990,
      "orted": 3991,
      "app": 3992,
      "three": 3993,
      "ĠHer": 3994,
      "ĠBl": 3995,
      "ĠEvery": 3996,
      "Ġspread": 3997,
      "ples": 3998,
      "Ġprec": 3999,
      "Ġworks": 4000,
      "interest": 4001,
      "Ġassist": 4002,
      "Ġassumed": 4003,
      "Ġappre": 4004,
      "Ġattent": 4005,
      "Ġheads": 4006,
      "Ġpeak": 4007,
      "Ġexped": 4008,
      "Ġvisited": 4009,
      "ugit": 4010,
      "Ġsimply": 4011,
      "Ġkindness": 4012,
      "engers": 4013,
      "Ġbrain": 4014,
      "understand": 4015,
      "therefore": 4016,
      "Ġexplain": 4017,
      "themselves": 4018,
      "Ġexcited": 4019,
      "ĠBaron": 4020,
      "Ġacquainted": 4021,
      "Ġcourageous": 4022,
      "Ġresolution": 4023,
      "cipal": 4024,
      "Ġfrightful": 4025,
      "Ġleaning": 4026,
      "Ġlabor": 4027,
      "Ġstruggle": 4028,
      "ĠJacopo": 4029,
      "AL": 4030,
      "Beauchamp": 4031,
      "aet": 4032,
      "bable": 4033,
      "cor": 4034,
      "cour": 4035,
      "fall": 4036,
      "give": 4037,
      "hus": 4038,
      "mps": 4039,
      "somet": 4040,
      "Ã¦": 4041,
      "Ġwonder": 4042,
      "ision": 4043,
      "enger": 4044,
      "itate": 4045,
      "Ġfro": 4046,
      "Ġfarther": 4047,
      "ane": 4048,
      "aries": 4049,
      "Ġpract": 4050,
      "Ġlines": 4051,
      "omson": 4052,
      "Ġease": 4053,
      "entered": 4054,
      "ĠMar": 4055,
      "Ġforty": 4056,
      "Ġassemb": 4057,
      "Ġstay": 4058,
      "Ġdeal": 4059,
      "Ġmeant": 4060,
      "ils": 4061,
      "Ġexample": 4062,
      "Ġsoft": 4063,
      "acity": 4064,
      "ulars": 4065,
      "those": 4066,
      "ĠHarry": 4067,
      "ĠPampas": 4068,
      "Ġshot": 4069,
      "Ġlives": 4070,
      "Ġalarmed": 4071,
      "Ġneck": 4072,
      "ument": 4073,
      "Ġprov": 4074,
      "Ġprodu": 4075,
      "ĠTw": 4076,
      "Ġadvent": 4077,
      "Ġwhence": 4078,
      "Ġrain": 4079,
      "Ġourselves": 4080,
      "Ġpreserved": 4081,
      "lieve": 4082,
      "Ġmarked": 4083,
      "Ġaddressing": 4084,
      "Ġflowers": 4085,
      "Ġwrite": 4086,
      "Ġforest": 4087,
      "Ġfamili": 4088,
      "Ġrank": 4089,
      "Ġsword": 4090,
      "Ġillum": 4091,
      "Ġangel": 4092,
      "ĠXX": 4093,
      "eleg": 4094,
      "passed": 4095,
      "Ġfancy": 4096,
      "Ġrisk": 4097,
      "Ġmovement": 4098,
      "Ġencampment": 4099,
      "Ġnarrow": 4100,
      "Ġexperienced": 4101,
      "Ġdetermined": 4102,
      "ĠĠĠĠĠĠĠ": 4103,
      "Really": 4104,
      "Ġwaist": 4105,
      "aetano": 4106,
      "Shall": 4107,
      "back": 4108,
      "four": 4109,
      "hic": 4110,
      "may": 4111,
      "opt": 4112,
      "pie": 4113,
      "rut": 4114,
      "such": 4115,
      "tr": 4116,
      "Ġtaste": 4117,
      "inbad": 4118,
      "Ġwand": 4119,
      "Ġwounded": 4120,
      "Ġsire": 4121,
      "itement": 4122,
      "Ġfle": 4123,
      "Ġcele": 4124,
      "Ġdiv": 4125,
      "ste": 4126,
      "iments": 4127,
      "Ġgrew": 4128,
      "Ġgained": 4129,
      "ades": 4130,
      "Ġanger": 4131,
      "ament": 4132,
      "acked": 4133,
      "pper": 4134,
      "osal": 4135,
      "ection": 4136,
      "Ġleaves": 4137,
      "ĠLou": 4138,
      "ofold": 4139,
      "Ġpret": 4140,
      "Ġpassengers": 4141,
      "Ġaccident": 4142,
      "chamber": 4143,
      "Ġattorney": 4144,
      "Ġdistinct": 4145,
      "Ġremains": 4146,
      "Ġvisible": 4147,
      "oubtless": 4148,
      "uggl": 4149,
      "Ġpleased": 4150,
      "Ġminute": 4151,
      "Ġproposed": 4152,
      "brated": 4153,
      "Ġdrops": 4154,
      "Ġjoined": 4155,
      "Ġ181": 4156,
      "Ġenemies": 4157,
      "Ġcentre": 4158,
      "Ġgroan": 4159,
      "through": 4160,
      "Ġexhausted": 4161,
      "Ġfancied": 4162,
      "Ġcoachman": 4163,
      "Ġearnest": 4164,
      "ĠBonapart": 4165,
      "Ġjeweller": 4166,
      "God": 4167,
      "Two": 4168,
      "hood": 4169,
      "morning": 4170,
      "ns": 4171,
      "nel": 4172,
      "uish": 4173,
      "uff": 4174,
      "Ã´": 4175,
      "eral": 4176,
      "Ġmajesty": 4177,
      "Ġbanks": 4178,
      "Ġfet": 4179,
      "Ġfood": 4180,
      "Ġfashion": 4181,
      "Ġdim": 4182,
      "attered": 4183,
      "Ġbelow": 4184,
      "Ġthunder": 4185,
      "ĠMelbourne": 4186,
      "road": 4187,
      "ters": 4188,
      "lig": 4189,
      "ulate": 4190,
      "Ġvenge": 4191,
      "osen": 4192,
      "ĠPort": 4193,
      "together": 4194,
      "ĠBy": 4195,
      "inded": 4196,
      "ĠThat": 4197,
      "Ġshoulder": 4198,
      "Ġrare": 4199,
      "perhaps": 4200,
      "Ġoverwhel": 4201,
      "Ġpride": 4202,
      "Ġgrotto": 4203,
      "Ġgreater": 4204,
      "Ġbetrot": 4205,
      "Ġpeace": 4206,
      "Ġcommitted": 4207,
      "Ġindicated": 4208,
      "Ġreturning": 4209,
      "Ġletters": 4210,
      "Ġcompany": 4211,
      "ĠChrist": 4212,
      "Ġhearing": 4213,
      "Ġsummon": 4214,
      "Ġelect": 4215,
      "Ġexplanation": 4216,
      "Ġheavens": 4217,
      "Ġviolently": 4218,
      "Ġsymp": 4219,
      "eanwhile": 4220,
      "Ġshuddered": 4221,
      "Ġdirectly": 4222,
      "Ġsenses": 4223,
      "Ġvalue": 4224,
      "Ġobeyed": 4225,
      "Ġfatigue": 4226,
      "Ġdegree": 4227,
      "urally": 4228,
      "Ġextraordinary": 4229,
      "Ġvengeance": 4230,
      "Just": 4231,
      "diff": 4232,
      "ocles": 4233,
      "Ġwret": 4234,
      "having": 4235,
      "erge": 4236,
      "Ġmort": 4237,
      "Ġmuttered": 4238,
      "org": 4239,
      "Ġfru": 4240,
      "Ġfare": 4241,
      "Ġclock": 4242,
      "Ġcalc": 4243,
      "Ġinj": 4244,
      "iding": 4245,
      "Ġrely": 4246,
      "cell": 4247,
      "Ġears": 4248,
      "Ġantic": 4249,
      "child": 4250,
      "ores": 4251,
      "theless": 4252,
      "agger": 4253,
      "Ġextend": 4254,
      "respond": 4255,
      "range": 4256,
      "unk": 4257,
      "Ġrepro": 4258,
      "olog": 4259,
      "death": 4260,
      "cial": 4261,
      "Ġentertain": 4262,
      "lessly": 4263,
      "Ġappoint": 4264,
      "Ġexpressed": 4265,
      "Ġsigns": 4266,
      "Ġlordship": 4267,
      "eyes": 4268,
      "Ġcheeks": 4269,
      "Ġgaze": 4270,
      "Ġangry": 4271,
      "Ġdescend": 4272,
      "Ġembra": 4273,
      "Ġswear": 4274,
      "Ġsufficiently": 4275,
      "Ġfurnished": 4276,
      "acques": 4277,
      "Ġagreeable": 4278,
      "Ġventure": 4279,
      "break": 4280,
      "ĠScot": 4281,
      "Ġaccomplished": 4282,
      "faction": 4283,
      "Ġsurrounded": 4284,
      "ĠCorsican": 4285,
      "Ġsolemn": 4286,
      "Ġprivate": 4287,
      "Ġgesture": 4288,
      "Ġshelter": 4289,
      "Al": 4290,
      "Ma": 4291,
      "af": 4292,
      "cir": 4293,
      "general": 4294,
      "mist": 4295,
      "pes": 4296,
      "yal": 4297,
      "Ġ8": 4298,
      "Ġtear": 4299,
      "Ġsides": 4300,
      "Ġorig": 4301,
      "itary": 4302,
      "Ġfully": 4303,
      "Ġcou": 4304,
      "Ġcup": 4305,
      "Ġcool": 4306,
      "Ġdull": 4307,
      "Ġholl": 4308,
      "ashed": 4309,
      "Ġhealth": 4310,
      "Ġlamp": 4311,
      "Ġrenew": 4312,
      "Ġnote": 4313,
      "ĠCol": 4314,
      "ilt": 4315,
      "ource": 4316,
      "ranean": 4317,
      "think": 4318,
      "Ġlivres": 4319,
      "Ġweap": 4320,
      "Ġcomr": 4321,
      "Ġart": 4322,
      "Ġlegs": 4323,
      "Ġagitated": 4324,
      "Ġquitted": 4325,
      "Ġsomeone": 4326,
      "Ġdesign": 4327,
      "Ġpreced": 4328,
      "Ġbrilliant": 4329,
      "Ġcompre": 4330,
      "Ġobst": 4331,
      "ĠOlbinett": 4332,
      "Ġattracted": 4333,
      "Ġguessed": 4334,
      "Ġinquire": 4335,
      "arned": 4336,
      "arnival": 4337,
      "Ġreading": 4338,
      "sub": 4339,
      "Ġforever": 4340,
      "Ġchoose": 4341,
      "ĠĠĠĠĠĠĠĠĠĠĠĠĠĠĠĠĠĠĠĠĠĠĠĠ": 4342,
      "Ġmisfortunes": 4343,
      "Ġskill": 4344,
      "Ġlanding": 4345,
      "Ġtrial": 4346,
      "Ġdirected": 4347,
      "ĠThus": 4348,
      "Ġwalk": 4349,
      "Ġcurrent": 4350,
      "Ġsituated": 4351,
      "ĠUn": 4352,
      "between": 4353,
      "!_âĢĿ": 4354,
      "looking": 4355,
      "Ġbeside": 4356,
      "Ġpistols": 4357,
      "Still": 4358,
      "papa": 4359,
      "Ġignorant": 4360,
      "Ġanticip": 4361,
      "Ayrton": 4362,
      "Bertuccio": 4363,
      "Ch": 4364,
      "captain": 4365,
      "hundred": 4366,
      "iable": 4367,
      "mag": 4368,
      "sk": 4369,
      "sue": 4370,
      "six": 4371,
      "took": 4372,
      "wing": 4373,
      "Ġ'": 4374,
      "Ġ6": 4375,
      "Ġ9": 4376,
      "Ġaud": 4377,
      "Ġwel": 4378,
      "Ġsor": 4379,
      "Ġmap": 4380,
      "Ġfugit": 4381,
      "Ġpure": 4382,
      "Ġpair": 4383,
      "Ġpublic": 4384,
      "Ġinno": 4385,
      "Ġlat": 4386,
      "velo": 4387,
      "Ġrejo": 4388,
      "Ġascertain": 4389,
      "agement": 4390,
      "ĠHave": 4391,
      "usual": 4392,
      "Ġnearer": 4393,
      "Ġweek": 4394,
      "ĠTwo": 4395,
      "Ġarrang": 4396,
      "ĠElba": 4397,
      "abled": 4398,
      "ables": 4399,
      "plic": 4400,
      "Ġobtained": 4401,
      "Ġoffice": 4402,
      "Ġtrack": 4403,
      "actly": 4404,
      "Ġsurface": 4405,
      "Ġrefuge": 4406,
      "Ġrang": 4407,
      "Ġquestioned": 4408,
      "Ġeleg": 4409,
      "gging": 4410,
      "Ġbroad": 4411,
      "Ġbuild": 4412,
      "Ġportion": 4413,
      "Ġfavorable": 4414,
      "Ġleading": 4415,
      "Ġmercy": 4416,
      "Ġruin": 4417,
      "Ġsalon": 4418,
      "Ġreflected": 4419,
      "Ġparticulars": 4420,
      "Ġawaited": 4421,
      "Ġsoldiers": 4422,
      "Ġaccepted": 4423,
      "Ġuneasy": 4424,
      "Ġimagine": 4425,
      "Ġexactly": 4426,
      "Ġfaithful": 4427,
      "Ġanchor": 4428,
      "Ġvillage": 4429,
      "oville": 4430,
      "Ab": 4431,
      "Perhaps": 4432,
      "francs": 4433,
      "iod": 4434,
      "nam": 4435,
      "name": 4436,
      "sail": 4437,
      "sÃ©es": 4438,
      "ucum": 4439,
      "water": 4440,
      "zen": 4441,
      "ĠQ": 4442,
      "Ġtong": 4443,
      "inqu": 4444,
      "Ġtheat": 4445,
      "har": 4446,
      "Ġmot": 4447,
      "Ġmile": 4448,
      "orough": 4449,
      "Ġbent": 4450,
      "Ġfit": 4451,
      "Ġfly": 4452,
      "Ġflight": 4453,
      "Ġda": 4454,
      "Ġdare": 4455,
      "asha": 4456,
      "Ġlif": 4457,
      "idly": 4458,
      "vell": 4459,
      "left": 4460,
      "Ġgreen": 4461,
      "lysÃ©es": 4462,
      "Ġthro": 4463,
      "almost": 4464,
      "Ġdeli": 4465,
      "ĠAm": 4466,
      "ĠCarnival": 4467,
      "elon": 4468,
      "ĠGaetano": 4469,
      "aked": 4470,
      "Ġcompelled": 4471,
      "Ġprogress": 4472,
      "ĠThaouka": 4473,
      "Ġrise": 4474,
      "Ġleagues": 4475,
      "Ġshaking": 4476,
      "Ġperiod": 4477,
      "ĠRen": 4478,
      "cierge": 4479,
      "Ġcontract": 4480,
      "Ġdeserted": 4481,
      "Ġremoved": 4482,
      "Ġbold": 4483,
      "being": 4484,
      "returned": 4485,
      "Ġcarb": 4486,
      "Ġconsult": 4487,
      "Ġintention": 4488,
      "Ġperspiration": 4489,
      "Ġglanced": 4490,
      "Ġinstance": 4491,
      "Ġcalling": 4492,
      "Ġrooms": 4493,
      "Ġfinding": 4494,
      "Ġhorrible": 4495,
      "Ġnaturally": 4496,
      "ernal": 4497,
      "Ġarrive": 4498,
      "Ġsubst": 4499,
      "Ġpurse": 4500,
      "Ġpursu": 4501,
      "Ġemer": 4502,
      "Ġdiscuss": 4503,
      "Ġwanting": 4504,
      "Ġfalling": 4505,
      "Ġconvuls": 4506,
      "Ġconvinced": 4507,
      "Ġcalmly": 4508,
      "Ġabsolute": 4509,
      "Ġparaly": 4510,
      "ĠThomson": 4511,
      "Ġanguish": 4512,
      "Ġtranqu": 4513,
      "ÃīlysÃ©es": 4514,
      "ground": 4515,
      "Ġclosely": 4516,
      "carriage": 4517,
      "Ġstraight": 4518,
      "Ġphilosop": 4519,
      "looked": 4520,
      "Ġarrested": 4521,
      "Ġfortunate": 4522,
      "Ġsettled": 4523,
      "Ġprecaution": 4524,
      "Ġmusic": 4525,
      "Ġfigure": 4526,
      "Ġnorth": 4527,
      "kerchief": 4528,
      "Ġoxen": 4529,
      "ucumetto": 4530,
      "502": 4531,
      "Ali": 4532,
      "Tell": 4533,
      "hum": 4534,
      "nal": 4535,
      "ners": 4536,
      "olet": 4537,
      "rust": 4538,
      "ude": 4539,
      "Ġteleg": 4540,
      "hether": 4541,
      "Ġowe": 4542,
      "orous": 4543,
      "Ġbow": 4544,
      "Ġburning": 4545,
      "Ġciv": 4546,
      "Ġhig": 4547,
      "Ġpoured": 4548,
      "Ġnerv": 4549,
      "Ġloss": 4550,
      "set": 4551,
      "seemed": 4552,
      "lex": 4553,
      "Ġeast": 4554,
      "ĠMore": 4555,
      "rious": 4556,
      "rog": 4557,
      "Ġsevere": 4558,
      "life": 4559,
      "acious": 4560,
      "appoint": 4561,
      "ĠDid": 4562,
      "ĠBoville": 4563,
      "uses": 4564,
      "using": 4565,
      "arted": 4566,
      "olo": 4567,
      "Ġtwice": 4568,
      "Ġadopt": 4569,
      "Ã¨re": 4570,
      "Ġmoreover": 4571,
      "Ġdesir": 4572,
      "Ġraft": 4573,
      "Ġthrow": 4574,
      "Ġcontinue": 4575,
      "Ġarmy": 4576,
      "Ġsuffering": 4577,
      "Ġfoi": 4578,
      "ception": 4579,
      "noon": 4580,
      "entlemen": 4581,
      "Ġvisitor": 4582,
      "Ġstock": 4583,
      "Ġslept": 4584,
      "Ġpropert": 4585,
      "Ġdevil": 4586,
      "Ġvehic": 4587,
      "Ġbroke": 4588,
      "Ġannoy": 4589,
      "Ġfatal": 4590,
      "Ġslightest": 4591,
      "glass": 4592,
      "ĠCarlini": 4593,
      "Ġequal": 4594,
      "Ġtorch": 4595,
      "Ġshudder": 4596,
      "Ġprincipal": 4597,
      "against": 4598,
      "ĠArgent": 4599,
      "appearance": 4600,
      "Ġpermission": 4601,
      "Ġcopy": 4602,
      "question": 4603,
      "Ġcelebrated": 4604,
      "Ġsorry": 4605,
      "400": 4606,
      "Robert": 4607,
      "bes": 4608,
      "drew": 4609,
      "mes": 4610,
      "make": 4611,
      "pet": 4612,
      "rass": 4613,
      "rated": 4614,
      "sat": 4615,
      "sil": 4616,
      "uce": 4617,
      "Ġtim": 4618,
      "Ġtide": 4619,
      "Ġstern": 4620,
      "eds": 4621,
      "hant": 4622,
      "Ġmat": 4623,
      "Ġmate": 4624,
      "Ġbought": 4625,
      "Ġcaught": 4626,
      "Ġdom": 4627,
      "Ġdue": 4628,
      "Ġrever": 4629,
      "Ġbearing": 4630,
      "oward": 4631,
      "utation": 4632,
      "raid": 4633,
      "Ġstar": 4634,
      "Ġstation": 4635,
      "herd": 4636,
      "Ġdepend": 4637,
      "Ġseam": 4638,
      "quise": 4639,
      "Ġartic": 4640,
      "Ġplains": 4641,
      "Ġroyal": 4642,
      "Ġshare": 4643,
      "Ġagitation": 4644,
      "ĠWh": 4645,
      "Ġspark": 4646,
      "Ġdesert": 4647,
      "necessary": 4648,
      "Ġentering": 4649,
      "Ġenthus": 4650,
      "beg": 4651,
      "acket": 4652,
      "Ġconscience": 4653,
      "withstanding": 4654,
      "ĠParisian": 4655,
      "Ġbread": 4656,
      "Ġmistress": 4657,
      "Ġsentin": 4658,
      "Ġadvancing": 4659,
      "Ġsummit": 4660,
      "Ġgrandpapa": 4661,
      "Ġchest": 4662,
      "hands": 4663,
      "ĠAustralian": 4664,
      "Ġreflect": 4665,
      "Ġsoldier": 4666,
      "Ġdefend": 4667,
      "Ġaccordingly": 4668,
      "Ġhesitation": 4669,
      "Ġhesitated": 4670,
      "Ġcircumstance": 4671,
      "speak": 4672,
      "Ġtravelling": 4673,
      "Ġtrembled": 4674,
      "Ġpunishment": 4675,
      "bourg": 4676,
      "ĠSpada": 4677,
      "Ġpatron": 4678,
      "Ġvarious": 4679,
      "Ġdisturb": 4680,
      "Ġcreature": 4681,
      "Ġremembered": 4682,
      "ĠMaoris": 4683,
      "Ġbenef": 4684,
      "Ġestablish": 4685,
      "Ġcomprehe": 4686,
      "Ġvehicle": 4687,
      "501": 4688,
      "Take": 4689,
      "care": 4690,
      "dieu": 4691,
      "horses": 4692,
      "na": 4693,
      "ph": 4694,
      "prom": 4695,
      "rÃ©": 4696,
      "rison": 4697,
      "ti": 4698,
      "turned": 4699,
      "ux": 4700,
      "Ġalive": 4701,
      "enelon": 4702,
      "Ġfow": 4703,
      "Ġfier": 4704,
      "Ġtown": 4705,
      "Ġpra": 4706,
      "Ġpress": 4707,
      "ato": 4708,
      "Ġhab": 4709,
      "Ġlake": 4710,
      "lder": 4711,
      "irth": 4712,
      "always": 4713,
      "Ġstones": 4714,
      "ĠCon": 4715,
      "peak": 4716,
      "Ġdoors": 4717,
      "aped": 4718,
      "ules": 4719,
      "asted": 4720,
      "oses": 4721,
      "Ġliqu": 4722,
      "ements": 4723,
      "akened": 4724,
      "Ġnecess": 4725,
      "Ġrepl": 4726,
      "Ġamaz": 4727,
      "Ġplayed": 4728,
      "Ġplacing": 4729,
      "Ġperceive": 4730,
      "Ġpermit": 4731,
      "Ġretire": 4732,
      "closed": 4733,
      "Ġsmo": 4734,
      "Ġaccent": 4735,
      "Ġcler": 4736,
      "Ġcarrying": 4737,
      "Ġrecovered": 4738,
      "Ġconsol": 4739,
      "iction": 4740,
      "Ġhearts": 4741,
      "comple": 4742,
      "Ġconfined": 4743,
      "Ġfearful": 4744,
      "Ġcondition": 4745,
      "Ġslave": 4746,
      "Ġcalmness": 4747,
      "Ġprice": 4748,
      "Ġuseful": 4749,
      "Ġabsor": 4750,
      "Ġtalked": 4751,
      "Ġdrove": 4752,
      "Ġdiamonds": 4753,
      "Ġendeavored": 4754,
      "Ġconducted": 4755,
      "Ġefforts": 4756,
      "Ġinquiries": 4757,
      "Ġevil": 4758,
      "Ġpronounced": 4759,
      "Ġcrowns": 4760,
      "Ġmourn": 4761,
      "Ġrecommend": 4762,
      "Ġapparently": 4763,
      "Ã¦s": 4764,
      "rutin": 4765,
      "ĠRenÃ©e": 4766,
      "Ġnervous": 4767,
      "401": 4768,
      "Bar": 4769,
      "IT": 4770,
      "book": 4771,
      "cause": 4772,
      "either": 4773,
      "fa": 4774,
      "good": 4775,
      "hor": 4776,
      "lim": 4777,
      "lord": 4778,
      "put": 4779,
      "power": 4780,
      "Ġtest": 4781,
      "Ġtreat": 4782,
      "Ġtruly": 4783,
      "inite": 4784,
      "Ġwore": 4785,
      "Ġwol": 4786,
      "Ġwide": 4787,
      "Ġwip": 4788,
      "Ġsli": 4789,
      "Ġoath": 4790,
      "Ġble": 4791,
      "Ġbal": 4792,
      "Ġbore": 4793,
      "Ġborn": 4794,
      "iture": 4795,
      "Ġfun": 4796,
      "Ġfish": 4797,
      "Ġfled": 4798,
      "Ġdig": 4799,
      "Ġdwell": 4800,
      "Ġhunt": 4801,
      "idable": 4802,
      "ĠIN": 4803,
      "Ġended": 4804,
      "utter": 4805,
      "ĠMay": 4806,
      "rive": 4807,
      "rapped": 4808,
      "ette": 4809,
      "urper": 4810,
      "Ġsell": 4811,
      "ĠArab": 4812,
      "antle": 4813,
      "Ġsust": 4814,
      "elim": 4815,
      "allel": 4816,
      "outhern": 4817,
      "umber": 4818,
      "ĠSouth": 4819,
      "Ġcomb": 4820,
      "Ġric": 4821,
      "Ġfears": 4822,
      "Ġroof": 4823,
      "Ġshade": 4824,
      "Ġagreed": 4825,
      "Ġusually": 4826,
      "Ġmadam": 4827,
      "Ġunless": 4828,
      "Ġquit": 4829,
      "abs": 4830,
      "arest": 4831,
      "Ġremarked": 4832,
      "opened": 4833,
      "Ġsmuggl": 4834,
      "Ġclim": 4835,
      "Ġserve": 4836,
      "Ġmark": 4837,
      "icted": 4838,
      "Ġremaining": 4839,
      "Ġsails": 4840,
      "Ġcommit": 4841,
      "Ġhappen": 4842,
      "Ġtrem": 4843,
      "Ġsupposed": 4844,
      "letter": 4845,
      "serv": 4846,
      "armes": 4847,
      "supp": 4848,
      "Ġlovely": 4849,
      "Ġmoon": 4850,
      "Ġinvited": 4851,
      "Ġdevotion": 4852,
      "Ġmatters": 4853,
      "Ġtransp": 4854,
      "Ġaffected": 4855,
      "Ġduke": 4856,
      "present": 4857,
      "meric": 4858,
      "Ġdemanded": 4859,
      "ĠĠĠĠĠĠĠĠĠĠĠĠĠĠĠĠĠĠĠĠĠĠĠĠĠĠĠĠĠĠĠĠĠĠĠĠĠĠĠĠĠĠĠĠĠĠĠĠĠĠĠĠĠĠĠĠ": 4860,
      "Ġemploy": 4861,
      "Ġintelligent": 4862,
      "continued": 4863,
      "Ġdestroyed": 4864,
      "Ġrestrain": 4865,
      "person": 4866,
      "Ġquietly": 4867,
      "Ġmessenger": 4868,
      "Ġfolded": 4869,
      "Ġcondemned": 4870,
      "Ġstyle": 4871,
      "Ġattentively": 4872,
      "Ġexpedition": 4873,
      "ĠTwofold": 4874,
      "piece": 4875,
      "Ġoverwhelmed": 4876,
      "Ġfugitives": 4877,
      "Ġtelegraph": 4878,
      "Ġproperty": 4879,
      "Poor": 4880,
      "RO": 4881,
      "Thalcave": 4882,
      "col": 4883,
      "dire": 4884,
      "lore": 4885,
      "met": 4886,
      "ox": 4887,
      "yet": 4888,
      "ĠYour": 4889,
      "Ġton": 4890,
      "rees": 4891,
      "isc": 4892,
      "Ġmission": 4893,
      "Ġbou": 4894,
      "Ġbirth": 4895,
      "arme": 4896,
      "Ġpit": 4897,
      "Ġpet": 4898,
      "asures": 4899,
      "Ġhate": 4900,
      "Ġwhisp": 4901,
      "Ġones": 4902,
      "ading": 4903,
      "verse": 4904,
      "urance": 4905,
      "lief": 4906,
      "liage": 4907,
      "ames": 4908,
      "ulation": 4909,
      "ĠHad": 4910,
      "osse": 4911,
      "Ġmanif": 4912,
      "Ġshock": 4913,
      "top": 4914,
      "ĠBe": 4915,
      "Ġrepast": 4916,
      "Ġweep": 4917,
      "Ġwealth": 4918,
      "umes": 4919,
      "Ġprovided": 4920,
      "Ġamb": 4921,
      "onds": 4922,
      "Ġspace": 4923,
      "Ġretreat": 4924,
      "whom": 4925,
      "athy": 4926,
      "Ġclasped": 4927,
      "Ġworse": 4928,
      "ĠAndes": 4929,
      "Ġpersu": 4930,
      "conv": 4931,
      "Ġmarquis": 4932,
      "Ġdragged": 4933,
      "Ġlightning": 4934,
      "Ġrefused": 4935,
      "country": 4936,
      "Ġbedroom": 4937,
      "Ġsteam": 4938,
      "Ġchosen": 4939,
      "Ġmiserable": 4940,
      "Ġmoving": 4941,
      "Ġtriump": 4942,
      "Ġcloak": 4943,
      "Ġinteresting": 4944,
      "Ġprofit": 4945,
      "ronic": 4946,
      "Ġannounce": 4947,
      "Ġreaching": 4948,
      "Ġbeauty": 4949,
      "ĠWilmore": 4950,
      "Ġuttering": 4951,
      "Ġclearly": 4952,
      "Ġimportance": 4953,
      "Ġhatred": 4954,
      "Ġreflection": 4955,
      "Ġdeclared": 4956,
      "Ġtorrent": 4957,
      "Ġcomplain": 4958,
      "Exactly": 4959,
      "Ġnames": 4960,
      "Ġadmiration": 4961,
      "Ġemployed": 4962,
      "Ġvolcan": 4963,
      "Ġdisturbed": 4964,
      "Ġexchange": 4965,
      "Ġbecoming": 4966,
      "Ġbetrayed": 4967,
      "Ġacknowledge": 4968,
      "Ġfragments": 4969,
      "Ġhitherto": 4970,
      "Ġporter": 4971,
      "Ġhunger": 4972,
      "Ġpretty": 4973,
      "ĠBonapartist": 4974,
      "Ġfetch": 4975,
      "Ġbetrothed": 4976,
      "Ġtongue": 4977,
      "Ġwhispered": 4978,
      "HaydÃ©e": 4979,
      "La": 4980,
      "bid": 4981,
      "find": 4982,
      "ias": 4983,
      "kind": 4984,
      "mat": 4985,
      "pherd": 4986,
      "turn": 4987,
      "wind": 4988,
      "wait": 4989,
      "Ġtask": 4990,
      "hest": 4991,
      "Ġwed": 4992,
      "Ġslo": 4993,
      "Ġbay": 4994,
      "Ġcere": 4995,
      "Ġcard": 4996,
      "Ġcul": 4997,
      "anim": 4998,
      "Ġtoward": 4999,
      "Ġdish": 5000,
      "Ġhosp": 5001,
      "Ġpall": 5002,
      "Ġink": 5003,
      "idity": 5004,
      "stra": 5005,
      "Ġgay": 5006,
      "Ġthorough": 5007,
      "illing": 5008,
      "Ġseizing": 5009,
      "amation": 5010,
      "ĠCastle": 5011,
      "Ġconcierge": 5012,
      "Ġwholly": 5013,
      "eling": 5014,
      "acas": 5015,
      "allow": 5016,
      "apsed": 5017,
      "Ġvalley": 5018,
      "Ġnois": 5019,
      "Ġweather": 5020,
      "ĠSome": 5021,
      "Ġfee": 5022,
      "Ġplate": 5023,
      "love": 5024,
      "loved": 5025,
      "Ġspare": 5026,
      "cies": 5027,
      "Ġcontents": 5028,
      "Ġbod": 5029,
      "open": 5030,
      "whose": 5031,
      "Ġchain": 5032,
      "Ġchamb": 5033,
      "Ġscrutin": 5034,
      "cern": 5035,
      "Ġrig": 5036,
      "convers": 5037,
      "Ġglad": 5038,
      "lighted": 5039,
      "Ġinstr": 5040,
      "Ġarmchair": 5041,
      "Ġpossibly": 5042,
      "compl": 5043,
      "Ġlighted": 5044,
      "Ġservices": 5045,
      "Ġgives": 5046,
      "Ġbarrier": 5047,
      "Ġfriendship": 5048,
      "Ġregular": 5049,
      "Ġpointing": 5050,
      "Ġcorrid": 5051,
      "Ġprompt": 5052,
      "myself": 5053,
      "Ġmurd": 5054,
      "Ġdelic": 5055,
      "Ġlanded": 5056,
      "Ġrelate": 5057,
      "Ġharbor": 5058,
      "Ġexamine": 5059,
      "Ġexamination": 5060,
      "Ġexamining": 5061,
      "Ġexcitement": 5062,
      "Ġacquired": 5063,
      "Ġacquaintance": 5064,
      "Ġtouch": 5065,
      "Ġnumerous": 5066,
      "going": 5067,
      "Ġstriking": 5068,
      "Ġ186": 5069,
      "Ġprevented": 5070,
      "Ġconviction": 5071,
      "zza": 5072,
      "Ġbirds": 5073,
      "Ġexchanged": 5074,
      "Ġfingers": 5075,
      "ĠAND": 5076,
      "Ġpictures": 5077,
      "Ġcruel": 5078,
      "Ġillumined": 5079,
      "ĠLouise": 5080,
      "Ġfruit": 5081,
      "Ġcoolness": 5082,
      "satis": 5083,
      "complete": 5084,
      "Ã¦sar": 5085,
      "osseum": 5086,
      "200": 5087,
      "201": 5088,
      "Austral": 5089,
      "Debray": 5090,
      "Grant": 5091,
      "Lord": 5092,
      "Lady": 5093,
      "Or": 5094,
      "RA": 5095,
      "Sire": 5096,
      "Was": 5097,
      "_.âĢĿ": 5098,
      "bra": 5099,
      "cr": 5100,
      "dom": 5101,
      "del": 5102,
      "gain": 5103,
      "garden": 5104,
      "opp": 5105,
      "pur": 5106,
      "sim": 5107,
      "Ġaven": 5108,
      "Ġsit": 5109,
      "Ġsqu": 5110,
      "hast": 5111,
      "itions": 5112,
      "Ġfond": 5113,
      "answ": 5114,
      "arly": 5115,
      "Ġdam": 5116,
      "escri": 5117,
      "asons": 5118,
      "Ġyellow": 5119,
      "Ġlouis": 5120,
      "sevent": 5121,
      "Ġrevol": 5122,
      "lect": 5123,
      "stre": 5124,
      "Ġeastern": 5125,
      "Ġgray": 5126,
      "icer": 5127,
      "ician": 5128,
      "ĠMajor": 5129,
      "rif": 5130,
      "Ġasleep": 5131,
      "Ġancient": 5132,
      "Ġstu": 5133,
      "Ġstup": 5134,
      "ĠAmeric": 5135,
      "ĠCom": 5136,
      "iform": 5137,
      "agree": 5138,
      "ooks": 5139,
      "oused": 5140,
      "ranch": 5141,
      "thousand": 5142,
      "astrop": 5143,
      "Ġlie": 5144,
      "ĠGo": 5145,
      "ĠGu": 5146,
      "Ġaloud": 5147,
      "aubourg": 5148,
      "Ġrob": 5149,
      "ĠWill": 5150,
      "Ġhandkerchief": 5151,
      "Ġperil": 5152,
      "Ġenabled": 5153,
      "Ġcontent": 5154,
      "fulness": 5155,
      "iano": 5156,
      "notes": 5157,
      "Ġbrid": 5158,
      "Ġgrow": 5159,
      "Ġgrant": 5160,
      "Ġgroup": 5161,
      "return": 5162,
      "everal": 5163,
      "Ġattacked": 5164,
      "Ġconscious": 5165,
      "Ġlasted": 5166,
      "Ġguest": 5167,
      "Ġhandsome": 5168,
      "lets": 5169,
      "Ġsilver": 5170,
      "Ġrestore": 5171,
      "Ġcorre": 5172,
      "ceptible": 5173,
      "Ġwanted": 5174,
      "Ġcapable": 5175,
      "Ġmoist": 5176,
      "Ġinvol": 5177,
      "urious": 5178,
      "mony": 5179,
      "Ġgazing": 5180,
      "Ġexplained": 5181,
      "Ġtalking": 5182,
      "Ġcolon": 5183,
      "Ġviolence": 5184,
      "Ġdocuments": 5185,
      "consid": 5186,
      "recogn": 5187,
      "ortunately": 5188,
      "Ġimagination": 5189,
      "verend": 5190,
      "Ġintroduced": 5191,
      "Ġproofs": 5192,
      "asping": 5193,
      "Ġbecomes": 5194,
      "Ġdistinguish": 5195,
      "Ġfinger": 5196,
      "Ġascended": 5197,
      "Ġendeavoring": 5198,
      "Thank": 5199,
      "Ġgendarme": 5200,
      "Ġdisplayed": 5201,
      "Ġcriminal": 5202,
      "Ġwaistcoat": 5203,
      "Ġextending": 5204,
      "Ġreproach": 5205,
      "Ġcarbine": 5206,
      "Ġtonight": 5207,
      "302": 5208,
      "EL": 5209,
      "EugÃ©nie": 5210,
      "IS": 5211,
      "OL": 5212,
      "cur": 5213,
      "cred": 5214,
      "det": 5215,
      "ech": 5216,
      "fell": 5217,
      "mere": 5218,
      "overy": 5219,
      "pic": 5220,
      "rather": 5221,
      "table": 5222,
      "uct": 5223,
      "went": 5224,
      "Ġing": 5225,
      "Ġtro": 5226,
      "ref": 5227,
      "ism": 5228,
      "isher": 5229,
      "erra": 5230,
      "Ġmiss": 5231,
      "oral": 5232,
      "Ġbos": 5233,
      "Ġbase": 5234,
      "Ġbook": 5235,
      "itc": 5236,
      "itor": 5237,
      "Ġcand": 5238,
      "ancing": 5239,
      "arie": 5240,
      "Ġpiast": 5241,
      "asked": 5242,
      "Ġlux": 5243,
      "ids": 5244,
      "Ġrevenge": 5245,
      "Ġetern": 5246,
      "entions": 5247,
      "Ġbeings": 5248,
      "riages": 5249,
      "ĠCocles": 5250,
      "Ġexerc": 5251,
      "ouses": 5252,
      "alled": 5253,
      "Ġvan": 5254,
      "Ġvap": 5255,
      "aston": 5256,
      "ĠPerhaps": 5257,
      "ember": 5258,
      "Ġprolong": 5259,
      "Ã©t": 5260,
      "Ġrub": 5261,
      "Ġamid": 5262,
      "olm": 5263,
      "Ġplaces": 5264,
      "Ġagent": 5265,
      "Ġusurper": 5266,
      "Ġafraid": 5267,
      "ĠWas": 5268,
      "Ġimpl": 5269,
      "Ġperf": 5270,
      "closure": 5271,
      "Ġprey": 5272,
      "hili": 5273,
      "Ġaccord": 5274,
      "beaut": 5275,
      "Ġafternoon": 5276,
      "perfect": 5277,
      "Ġparts": 5278,
      "iazza": 5279,
      "ĠNever": 5280,
      "Ġconsent": 5281,
      "Ġconsisted": 5282,
      "Ġtelling": 5283,
      "ceiving": 5284,
      "Ġwishing": 5285,
      "Ġpursued": 5286,
      "Ġ11": 5287,
      "Ġcorrespond": 5288,
      "alcolm": 5289,
      "Ġstreets": 5290,
      "Ġloaded": 5291,
      "Ġthirst": 5292,
      "Ġswift": 5293,
      "Ġmisery": 5294,
      "poor": 5295,
      "uries": 5296,
      "Ġpropose": 5297,
      "hole": 5298,
      "Ġstarting": 5299,
      "Ġtribe": 5300,
      "Ġfinal": 5301,
      "Ġsleeping": 5302,
      "Ġmiddle": 5303,
      "grat": 5304,
      "Ġprobable": 5305,
      "ealous": 5306,
      "Ġfury": 5307,
      "Ġheavily": 5308,
      "ĠChamps": 5309,
      "Ġpalace": 5310,
      "Ġshipwrecked": 5311,
      "Ġrunning": 5312,
      "Ġgallop": 5313,
      "evening": 5314,
      "Ġfastened": 5315,
      "Ġsurround": 5316,
      "Ġintelligence": 5317,
      "Ġprecautions": 5318,
      "words": 5319,
      "Ġcontaining": 5320,
      "Ġenergy": 5321,
      "ividual": 5322,
      "ĠBlacas": 5323,
      "ĠChristian": 5324,
      "ChÃ¢teau": 5325,
      "ĠWhile": 5326,
      "Ġsentinel": 5327,
      "Ġabsorbed": 5328,
      "escribable": 5329,
      "301": 5330,
      "402": 5331,
      "Before": 5332,
      "Can": 5333,
      "Imp": 5334,
      "Meanwhile": 5335,
      "RE": 5336,
      "TH": 5337,
      "Upon": 5338,
      "Wait": 5339,
      "bu": 5340,
      "bur": 5341,
      "bers": 5342,
      "dest": 5343,
      "equ": 5344,
      "hical": 5345,
      "ius": 5346,
      "iance": 5347,
      "lished": 5348,
      "ma": 5349,
      "mis": 5350,
      "mpt": 5351,
      "same": 5352,
      "sign": 5353,
      "voice": 5354,
      "wort": 5355,
      "years": 5356,
      "yss": 5357,
      "inated": 5358,
      "inals": 5359,
      "Ġsank": 5360,
      "Ġsighed": 5361,
      "enet": 5362,
      "Ġmantle": 5363,
      "Ġbrief": 5364,
      "ita": 5365,
      "itating": 5366,
      "Ġcoll": 5367,
      "Ġchim": 5368,
      "Ġcoward": 5369,
      "Ġdign": 5370,
      "Ġduel": 5371,
      "Ġdressing": 5372,
      "Ġdazz": 5373,
      "Ġpace": 5374,
      "Ġinvent": 5375,
      "Ġyards": 5376,
      "leg": 5377,
      "sto": 5378,
      "stri": 5379,
      "Ġsacred": 5380,
      "irty": 5381,
      "Ġissued": 5382,
      "ilities": 5383,
      "Ġcontem": 5384,
      "quarter": 5385,
      "aches": 5386,
      "ulations": 5387,
      "ustrious": 5388,
      "Ġvo": 5389,
      "ĠPl": 5390,
      "Ġshown": 5391,
      "estic": 5392,
      "usation": 5393,
      "umult": 5394,
      "uments": 5395,
      "Ġrum": 5396,
      "ruction": 5397,
      "ĠEx": 5398,
      "ĠEach": 5399,
      "Ġimm": 5400,
      "Ġperformed": 5401,
      "ĠRe": 5402,
      "Ġcontro": 5403,
      "Ġremorse": 5404,
      "Ġoutside": 5405,
      "owner": 5406,
      "Ġray": 5407,
      "Ġrail": 5408,
      "Ġprecious": 5409,
      "vessel": 5410,
      "Ġresp": 5411,
      "Ġresist": 5412,
      "manner": 5413,
      "Ġclothes": 5414,
      "conce": 5415,
      "ixed": 5416,
      "Ġflood": 5417,
      "Ġflames": 5418,
      "rows": 5419,
      "Ġbegun": 5420,
      "Ġterrified": 5421,
      "comp": 5422,
      "coming": 5423,
      "Ġsupply": 5424,
      "versed": 5425,
      "ometimes": 5426,
      "Ġpersonal": 5427,
      "ensive": 5428,
      "Ġstrangers": 5429,
      "Ġextent": 5430,
      "success": 5431,
      "cribed": 5432,
      "Ġmurder": 5433,
      "Ġstepped": 5434,
      "Ġswim": 5435,
      "fee": 5436,
      "Ġdetails": 5437,
      "Ġhaste": 5438,
      "yourself": 5439,
      "disc": 5440,
      "Ġamongst": 5441,
      "Ġcolum": 5442,
      "Ġbuilt": 5443,
      "Ġengagement": 5444,
      "Ġgetting": 5445,
      "Ġcavern": 5446,
      "Ġembar": 5447,
      "Ġattempted": 5448,
      "ĠYet": 5449,
      "Ġshadows": 5450,
      "Ġwitnesses": 5451,
      "ribute": 5452,
      "Ġcaptivity": 5453,
      "Which": 5454,
      "While": 5455,
      "Ġdestroy": 5456,
      "Ġpurchase": 5457,
      "Ġgenerous": 5458,
      "Ġinterpret": 5459,
      "Ġintroduction": 5460,
      "Ġerror": 5461,
      "ĠCatalans": 5462,
      "Ġconvey": 5463,
      "Ġfeverish": 5464,
      "athered": 5465,
      "ammered": 5466,
      "Ġtempest": 5467,
      "something": 5468,
      "Ġadventure": 5469,
      "Ġfamiliar": 5470,
      "Ã´te": 5471,
      "Ġsummoned": 5472,
      "Ġbosom": 5473,
      "Ġcontempl": 5474,
      "202": 5475,
      "IL": 5476,
      "Lu": 5477,
      "May": 5478,
      "Marseilles": 5479,
      "Un": 5480,
      "away": 5481,
      "epe": 5482,
      "fam": 5483,
      "ips": 5484,
      "jud": 5485,
      "last": 5486,
      "miss": 5487,
      "oci": 5488,
      "som": 5489,
      "too": 5490,
      "wild": 5491,
      "Ġtied": 5492,
      "Ġtired": 5493,
      "Ġwings": 5494,
      "Ġwarn": 5495,
      "Ġsn": 5496,
      "Ġsource": 5497,
      "Ġbol": 5498,
      "Ġbranch": 5499,
      "Ġfool": 5500,
      "Ġcord": 5501,
      "another": 5502,
      "Ġdust": 5503,
      "Ġdine": 5504,
      "Ġdried": 5505,
      "Ġdug": 5506,
      "Ġdrank": 5507,
      "Ġlod": 5508,
      "vet": 5509,
      "Ġreef": 5510,
      "Ġbeloved": 5511,
      "add": 5512,
      "alt": 5513,
      "alities": 5514,
      "Ġstiff": 5515,
      "Ġstammered": 5516,
      "ĠCucumetto": 5517,
      "antity": 5518,
      "agg": 5519,
      "agraph": 5520,
      "Ġdozen": 5521,
      "Ġsus": 5522,
      "eless": 5523,
      "acles": 5524,
      "ĠDuring": 5525,
      "Ġvague": 5526,
      "ĠPiazza": 5527,
      "ĠGeneral": 5528,
      "Ġwear": 5529,
      "oundation": 5530,
      "ĠSinbad": 5531,
      "ĠTell": 5532,
      "Ġarmed": 5533,
      "Ġadieu": 5534,
      "Ġplans": 5535,
      "Ġmademoiselle": 5536,
      "Ġunusual": 5537,
      "aboo": 5538,
      "Ġgod": 5539,
      "Ġdisple": 5540,
      "mean": 5541,
      "plain": 5542,
      "Ġraise": 5543,
      "opolo": 5544,
      "Ġresc": 5545,
      "believe": 5546,
      "Ġimpression": 5547,
      "Ġspeech": 5548,
      "Ġtraced": 5549,
      "ĠNight": 5550,
      "Ġmarquise": 5551,
      "exc": 5552,
      "Ġsecure": 5553,
      "Ġinstru": 5554,
      "Ġordinary": 5555,
      "Ġguess": 5556,
      "compre": 5557,
      "Ġsurve": 5558,
      "Ġinterview": 5559,
      "Ġrested": 5560,
      "Ġbreaking": 5561,
      "Ġawakened": 5562,
      "Ġinsult": 5563,
      "arms": 5564,
      "Ġvisitors": 5565,
      "Ġputting": 5566,
      "fortunately": 5567,
      "Ġrapidity": 5568,
      "Ġcharged": 5569,
      "Ġstrict": 5570,
      "coach": 5571,
      "brought": 5572,
      "Ġfinally": 5573,
      "Ġparallel": 5574,
      "Ġtouching": 5575,
      "Ġprobability": 5576,
      "Ġmerit": 5577,
      "conscious": 5578,
      "Ġrespecting": 5579,
      "Ġconstantly": 5580,
      "Ġexpecting": 5581,
      "ESS": 5582,
      "Ġframe": 5583,
      "ĠPatagonia": 5584,
      "Ġrisen": 5585,
      "ENT": 5586,
      "Ġsensation": 5587,
      "occup": 5588,
      "Ġleaned": 5589,
      "friends": 5590,
      "Ġsettle": 5591,
      "Ġlimbs": 5592,
      "Ġdegrees": 5593,
      "work": 5594,
      "Ġcollected": 5595,
      "Ġpreparing": 5596,
      "Thanks": 5597,
      "Ġstrove": 5598,
      "Armill": 5599,
      "Ġindifference": 5600,
      "Ġprecisely": 5601,
      "Ġfarewell": 5602,
      "Ġappointed": 5603,
      "Ġtranquill": 5604,
      "Ġmournful": 5605,
      "Ġfuneral": 5606,
      "Ġwedding": 5607,
      "conversation": 5608,
      "Ġcorrect": 5609,
      "Ã©tÃ©": 5610,
      "Ã´tel": 5611,
      "Armilly": 5612,
      ";âĢĶ": 5613,
      "French": 5614,
      "Gentlemen": 5615,
      "Look": 5616,
      "Mo": 5617,
      "See": 5618,
      "Suddenly": 5619,
      "TÃ©tÃ©": 5620,
      "bly": 5621,
      "chan": 5622,
      "gow": 5623,
      "lay": 5624,
      "mod": 5625,
      "ode": 5626,
      "ration": 5627,
      "sent": 5628,
      "sus": 5629,
      "tran": 5630,
      "tree": 5631,
      "Ã®": 5632,
      "Ġtakes": 5633,
      "inha": 5634,
      "reement": 5635,
      "Ġsink": 5636,
      "Ġmute": 5637,
      "Ġbare": 5638,
      "Ġfac": 5639,
      "Ġcig": 5640,
      "Ġchan": 5641,
      "Ġtot": 5642,
      "Ġtoler": 5643,
      "ari": 5644,
      "Ġdense": 5645,
      "atory": 5646,
      "Ġhang": 5647,
      "Ġnation": 5648,
      "Ġlof": 5649,
      "Ġlav": 5650,
      "Ġlying": 5651,
      "Ġreasons": 5652,
      "ceased": 5653,
      "owder": 5654,
      "icable": 5655,
      "uties": 5656,
      "adem": 5657,
      "advan": 5658,
      "alone": 5659,
      "urch": 5660,
      "ays": 5661,
      "Ġmeas": 5662,
      "liv": 5663,
      "ifty": 5664,
      "acher": 5665,
      "ulating": 5666,
      "ĠDe": 5667,
      "ĠHÃ´tel": 5668,
      "unged": 5669,
      "Ġshirt": 5670,
      "ĠBeau": 5671,
      "arture": 5672,
      "Ġrepres": 5673,
      "Ġrepose": 5674,
      "Ġweeks": 5675,
      "uming": 5676,
      "Ġcounted": 5677,
      "ĠFoundation": 5678,
      "igantic": 5679,
      "ĠSan": 5680,
      "Ã©lie": 5681,
      "Ġrough": 5682,
      "Ġrushing": 5683,
      "Ġshepherd": 5684,
      "Ġshame": 5685,
      "ĠEast": 5686,
      "Ġuniform": 5687,
      "Ġcanoe": 5688,
      "Ġperform": 5689,
      "Ġdaylight": 5690,
      "ignation": 5691,
      "Ġcontented": 5692,
      "Ġaccused": 5693,
      "Ġaccusation": 5694,
      "Ġresigned": 5695,
      "because": 5696,
      "many": 5697,
      "Ġbrut": 5698,
      "Ġworn": 5699,
      "Ġworked": 5700,
      "Ġscaff": 5701,
      "Ġtrace": 5702,
      "Ġcontinent": 5703,
      "Ġintense": 5704,
      "vident": 5705,
      "Ġendure": 5706,
      "Ġsincere": 5707,
      "Ġsilk": 5708,
      "Ġhole": 5709,
      "Ġcrimes": 5710,
      "Ġexclamation": 5711,
      "does": 5712,
      "Ġunderstanding": 5713,
      "Ġdeprived": 5714,
      "days": 5715,
      "Ġutmost": 5716,
      "Ġextric": 5717,
      "nowy": 5718,
      "Ġchoice": 5719,
      "Ġincred": 5720,
      "ĠIndeed": 5721,
      "longer": 5722,
      "Ġcheer": 5723,
      "Ġadmit": 5724,
      "disappeared": 5725,
      "Ġabsent": 5726,
      "Ġparagraph": 5727,
      "ĠThree": 5728,
      "Ġcircle": 5729,
      "Ġneeded": 5730,
      "Ġforgot": 5731,
      "remained": 5732,
      "happiness": 5733,
      "Ġdeparted": 5734,
      "Ġprepare": 5735,
      "Ġcommanded": 5736,
      "Ġobjects": 5737,
      "Ġawaiting": 5738,
      "Ġ50": 5739,
      "Ġrecollection": 5740,
      "Ġdifficulties": 5741,
      "Ġ30": 5742,
      "Ġgrateful": 5743,
      "scurity": 5744,
      "Ġsatisfaction": 5745,
      "Ġfurniture": 5746,
      "Ġbelonging": 5747,
      "bitants": 5748,
      "Ġdrive": 5749,
      "ĠSpain": 5750,
      "everything": 5751,
      "accustomed": 5752,
      "Ġedge": 5753,
      "Ġeduc": 5754,
      "Ġmodern": 5755,
      "Ġsupported": 5756,
      "Ġcaptives": 5757,
      "Ġdescribed": 5758,
      "Ġcommunication": 5759,
      "Ġpolitical": 5760,
      "Ġparticularly": 5761,
      "Ġinhabited": 5762,
      "Ġconsequently": 5763,
      "Ġinterposed": 5764,
      "natural": 5765,
      "Ġacknowled": 5766,
      "Ġpiercing": 5767,
      "Ġrevealed": 5768,
      "Ġtorture": 5769,
      "circumst": 5770,
      "Ġhollow": 5771,
      "Ġinnocent": 5772,
      "vellous": 5773,
      "ĠMoreover": 5774,
      "ĠArgentine": 5775,
      "Ġfowl": 5776,
      "Ġliquid": 5777,
      "Ġchambre": 5778,
      "Ġmurderer": 5779,
      "seventh": 5780,
      "Ġstupe": 5781,
      "Ġpiastres": 5782,
      "Ġscaffold": 5783,
      "Besides": 5784,
      "IV": 5785,
      "Le": 5786,
      "ald": 5787,
      "aired": 5788,
      "bably": 5789,
      "hod": 5790,
      "lime": 5791,
      "look": 5792,
      "rs": 5793,
      "sl": 5794,
      "sound": 5795,
      "saw": 5796,
      "uzz": 5797,
      "wr": 5798,
      "wood": 5799,
      "xion": 5800,
      "Ġid": 5801,
      "Ġtap": 5802,
      "Ġtumult": 5803,
      "inv": 5804,
      "inces": 5805,
      "Ġwrapped": 5806,
      "edy": 5807,
      "isible": 5808,
      "once": 5809,
      "oration": 5810,
      "Ġfer": 5811,
      "Ġflock": 5812,
      "Ġcash": 5813,
      "ana": 5814,
      "Ġtow": 5815,
      "Ġpushed": 5816,
      "Ġposit": 5817,
      "ashes": 5818,
      "Ġinher": 5819,
      "Ġhero": 5820,
      "Ġhabit": 5821,
      "Ġlest": 5822,
      "Ġlater": 5823,
      "Ġreck": 5824,
      "lected": 5825,
      "cended": 5826,
      "Ġbehold": 5827,
      "ĠMalcolm": 5828,
      "ghorn": 5829,
      "rie": 5830,
      "Ġwithdrew": 5831,
      "Ġforbid": 5832,
      "roid": 5833,
      "Ġdeb": 5834,
      "istoc": 5835,
      "ources": 5836,
      "resist": 5837,
      "ulse": 5838,
      "Ġshr": 5839,
      "Ġshout": 5840,
      "emon": 5841,
      "ĠVia": 5842,
      "Ġknock": 5843,
      "indeed": 5844,
      "ĠSailor": 5845,
      "ĠTur": 5846,
      "Ġleaped": 5847,
      "Ġabyss": 5848,
      "ĠLake": 5849,
      "Ġadjo": 5850,
      "Ġplunged": 5851,
      "Ġunited": 5852,
      "Ġgoes": 5853,
      "Ġspr": 5854,
      "dev": 5855,
      "deep": 5856,
      "pled": 5857,
      "Ġotherwise": 5858,
      "Ġaccess": 5859,
      "Ġrespond": 5860,
      "perate": 5861,
      "Ġbless": 5862,
      "Ġcomposed": 5863,
      "Ġcarriages": 5864,
      "Ġimpro": 5865,
      "Ġimpert": 5866,
      "Ġeverywhere": 5867,
      "Ġthrone": 5868,
      "Ġassume": 5869,
      "Ġassurance": 5870,
      "Ġcontinually": 5871,
      "excell": 5872,
      "Ġfolly": 5873,
      "Ġflame": 5874,
      "Ġflowed": 5875,
      "ĠJust": 5876,
      "overn": 5877,
      "Ġcalls": 5878,
      "Ġsooner": 5879,
      "Ġfoliage": 5880,
      "Ġsubter": 5881,
      "Ġsublime": 5882,
      "Ġregions": 5883,
      "served": 5884,
      "Does": 5885,
      "Ġinsp": 5886,
      "Ġlock": 5887,
      "Ġdiscovery": 5888,
      "Ġhonorable": 5889,
      "Ġearly": 5890,
      "Ġinval": 5891,
      "Ġinvisible": 5892,
      "Ġlandlord": 5893,
      "ification": 5894,
      "understood": 5895,
      "Ġfinish": 5896,
      "Ġcastle": 5897,
      "Ġhelm": 5898,
      "Ġforgive": 5899,
      "Ġstudied": 5900,
      "ĠStill": 5901,
      "Ġbringing": 5902,
      "Ġdropped": 5903,
      "France": 5904,
      "Ġfavorite": 5905,
      "Ġprayers": 5906,
      "Ġutterly": 5907,
      "lasgow": 5908,
      "Ġcoldly": 5909,
      "Ġstrike": 5910,
      "Ġofficers": 5911,
      "Edward": 5912,
      "Ġdeclare": 5913,
      "Ġbelonged": 5914,
      "Excuse": 5915,
      "Ġdriven": 5916,
      "Ġsolitary": 5917,
      "Ġyielded": 5918,
      "Ġremarkable": 5919,
      "ĠNaples": 5920,
      "Ġobey": 5921,
      "ĠCorsica": 5922,
      "expression": 5923,
      "Ġcatastrop": 5924,
      "Ġpurchased": 5925,
      "Ġgendarmes": 5926,
      "Ġreceipt": 5927,
      "Ġvigor": 5928,
      "Ġsacrifice": 5929,
      "Ġprudent": 5930,
      "Ġsympathy": 5931,
      "diffic": 5932,
      "Ġrenewed": 5933,
      "ĠColosseum": 5934,
      "Ġwelcome": 5935,
      "Ġthroat": 5936,
      "human": 5937,
      "Ġnecessity": 5938,
      "Ġclerk": 5939,
      "agreeable": 5940,
      "Ġlofty": 5941,
      "300": 5942,
      "Cavalcanti": 5943,
      "Has": 5944,
      "Me": 5945,
      "Nay": 5946,
      "Wil": 5947,
      "bing": 5948,
      "besides": 5949,
      "cence": 5950,
      "dig": 5951,
      "fear": 5952,
      "ivers": 5953,
      "lt": 5954,
      "mem": 5955,
      "mosp": 5956,
      "rise": 5957,
      "sleep": 5958,
      "uced": 5959,
      "vous": 5960,
      "viol": 5961,
      "Ġta": 5962,
      "Ġtalent": 5963,
      "Ġtrying": 5964,
      "iny": 5965,
      "inister": 5966,
      "reet": 5967,
      "Ġwreck": 5968,
      "Ġsense": 5969,
      "Ġsouthern": 5970,
      "Ġmal": 5971,
      "Ġbull": 5972,
      "Ġfr": 5973,
      "Ġfaces": 5974,
      "Ġcoun": 5975,
      "Ġdared": 5976,
      "Ġdashed": 5977,
      "inging": 5978,
      "Ġpressing": 5979,
      "atched": 5980,
      "Ġheir": 5981,
      "Ġreverend": 5982,
      "leave": 5983,
      "stant": 5984,
      "stead": 5985,
      "Ġbeheld": 5986,
      "Ġgently": 5987,
      "adm": 5988,
      "adv": 5989,
      "also": 5990,
      "already": 5991,
      "although": 5992,
      "Ġatmosp": 5993,
      "urs": 5994,
      "Ġstir": 5995,
      "Ġstif": 5996,
      "Ġsear": 5997,
      "ĠCÃ¦sar": 5998,
      "pel": 5999,
      "pended": 6000,
      "antime": 6001,
      "Ġsuit": 6002,
      "elp": 6003,
      "ardieu": 6004,
      "ĠPer": 6005,
      "Ġsho": 6006,
      "Ġshowing": 6007,
      "ems": 6008,
      "Ġnoon": 6009,
      "aug": 6010,
      "ĠSee": 6011,
      "Ġproper": 6012,
      "olit": 6013,
      "offee": 6014,
      "Ġmadness": 6015,
      "Ġquantity": 6016,
      "Ġdisappoint": 6017,
      "Ġenv": 6018,
      "dec": 6019,
      "Ġrage": 6020,
      "Ġthrust": 6021,
      "Ġthrowing": 6022,
      "Ġtraversed": 6023,
      "Ġattached": 6024,
      "Ġintentions": 6025,
      "Ġglided": 6026,
      "soon": 6027,
      "Ġsignature": 6028,
      "Ġpaused": 6029,
      "command": 6030,
      "Ġtreasures": 6031,
      "leted": 6032,
      "Ġinterrog": 6033,
      "caire": 6034,
      "Ġindul": 6035,
      "Ġindescribable": 6036,
      "Ġfoam": 6037,
      "prop": 6038,
      "Ġsubs": 6039,
      "Ġ15": 6040,
      "Ġdepths": 6041,
      "Ġminds": 6042,
      "Ġforms": 6043,
      "Ġformidable": 6044,
      "Ġswall": 6045,
      "spread": 6046,
      "Ġdelicate": 6047,
      "Ġskil": 6048,
      "formation": 6049,
      "Ġgrandmother": 6050,
      "cope": 6051,
      "Ġinterests": 6052,
      "Ġkeeping": 6053,
      "Ġelapsed": 6054,
      "Ġembroid": 6055,
      "Ġslightly": 6056,
      "ĠKing": 6057,
      "ĠOnly": 6058,
      "Ġwarri": 6059,
      "Ġlaws": 6060,
      "grand": 6061,
      "secret": 6062,
      "Ġspectacle": 6063,
      "world": 6064,
      "vived": 6065,
      "Ġpermitted": 6066,
      "struck": 6067,
      "Ġselfish": 6068,
      "ĠCatalan": 6069,
      "Ġsuspicions": 6070,
      "Ġdisplay": 6071,
      "Ġrecalled": 6072,
      "Ġconveyed": 6073,
      "draw": 6074,
      "Ġafforded": 6075,
      "course": 6076,
      "Ġassembly": 6077,
      "Ġflew": 6078,
      "Ġwretch": 6079,
      "Ġmortal": 6080,
      "Ġweapons": 6081,
      "About": 6082,
      "Ġmotive": 6083,
      "Ġdeliver": 6084,
      "Ġabsolutely": 6085,
      "lexand": 6086,
      "Ġdesirous": 6087,
      "Ġamazement": 6088,
      "colored": 6089,
      "Ġpallor": 6090,
      "Ġthoroughly": 6091,
      "Ġinstrument": 6092,
      "Ġcorridor": 6093,
      "Ġtroop": 6094,
      "worthy": 6095,
      "stopped": 6096,
      "Ġembarrass": 6097,
      "Ġtranquillity": 6098,
      "Moore": 6099,
      "Ã®mes": 6100,
      "Ġtolerably": 6101,
      "Ġmeasured": 6102,
      "CE": 6103,
      "Dear": 6104,
      "Helena": 6105,
      "Mary": 6106,
      "Sc": 6107,
      "Say": 6108,
      "Some": 6109,
      "Speak": 6110,
      "chance": 6111,
      "di": 6112,
      "dain": 6113,
      "down": 6114,
      "got": 6115,
      "hop": 6116,
      "lar": 6117,
      "lict": 6118,
      "lantic": 6119,
      "mid": 6120,
      "mad": 6121,
      "mind": 6122,
      "non": 6123,
      "rim": 6124,
      "uable": 6125,
      "Ã¯": 6126,
      "ĠYes": 6127,
      "really": 6128,
      "Ġwon": 6129,
      "Ġwet": 6130,
      "Ġwave": 6131,
      "Ġwicked": 6132,
      "Ġsick": 6133,
      "Ġmil": 6134,
      "Ġbowing": 6135,
      "ites": 6136,
      "itious": 6137,
      "Ġtoken": 6138,
      "Ġdict": 6139,
      "Ġpick": 6140,
      "Ġnav": 6141,
      "Ġretain": 6142,
      "Ġbeasts": 6143,
      "Ġthy": 6144,
      "adier": 6145,
      "ĠMe": 6146,
      "Ġnotes": 6147,
      "Ġnotwithstanding": 6148,
      "rait": 6149,
      "Ġante": 6150,
      "Ġstor": 6151,
      "ante": 6152,
      "elling": 6153,
      "quarie": 6154,
      "tember": 6155,
      "respect": 6156,
      "apaz": 6157,
      "Ġornam": 6158,
      "ĠPasha": 6159,
      "ĠPopolo": 6160,
      "Ġlibr": 6161,
      "estig": 6162,
      "usal": 6163,
      "Ġnob": 6164,
      "ordered": 6165,
      "Ġrepent": 6166,
      "ĠFive": 6167,
      "ĠFaubourg": 6168,
      "ĠST": 6169,
      "ĠSnowy": 6170,
      "Ġprospect": 6171,
      "geant": 6172,
      "Ġaristoc": 6173,
      "Ġleg": 6174,
      "Ġjealous": 6175,
      "ĠLi": 6176,
      "Ġplants": 6177,
      "loqu": 6178,
      "eptember": 6179,
      "Ġagony": 6180,
      "ruary": 6181,
      "Ġdisgu": 6182,
      "others": 6183,
      "Ġdaybreak": 6184,
      "dead": 6185,
      "cled": 6186,
      "Ġrace": 6187,
      "Ġprecip": 6188,
      "hips": 6189,
      "perceived": 6190,
      "Ġclaim": 6191,
      "Ġclasping": 6192,
      "Ġgrowing": 6193,
      "izes": 6194,
      "Ġeverybody": 6195,
      "Ġrivers": 6196,
      "Ġassert": 6197,
      "ĠNÃ®mes": 6198,
      "Ġmarvellous": 6199,
      "oyal": 6200,
      "Ġcommission": 6201,
      "overing": 6202,
      "Ġconfided": 6203,
      "Ġfortnight": 6204,
      "Ġhorror": 6205,
      "prise": 6206,
      "Ġinterf": 6207,
      "Ġinterior": 6208,
      "Ġrestored": 6209,
      "Ġindividual": 6210,
      "ebruary": 6211,
      "Ġpursue": 6212,
      "serve": 6213,
      "Ġcareer": 6214,
      "Ġextrem": 6215,
      "Ġextingu": 6216,
      "Ġmurdered": 6217,
      "Ġsixty": 6218,
      "Ġinvitation": 6219,
      "pocket": 6220,
      "attention": 6221,
      "Ġvel": 6222,
      "Ġveil": 6223,
      "Ġchanging": 6224,
      "ĠMacquarie": 6225,
      "ĠXL": 6226,
      "icient": 6227,
      "Ġboats": 6228,
      "Ġgolden": 6229,
      "Ġmethod": 6230,
      "Ġdrop": 6231,
      "itality": 6232,
      "boat": 6233,
      "Ġtempt": 6234,
      "import": 6235,
      "Ġdisposed": 6236,
      "recollect": 6237,
      "Ġhesitate": 6238,
      "Ġunfortunately": 6239,
      "scarcely": 6240,
      "Ġseats": 6241,
      "Ġpreviously": 6242,
      "Ġfurnish": 6243,
      "Ġinclined": 6244,
      "Ġequally": 6245,
      "Ġexception": 6246,
      "Ġmasses": 6247,
      "Ġcreated": 6248,
      "Ġhungry": 6249,
      "Without": 6250,
      "Ġgallery": 6251,
      "Thus": 6252,
      "Ġmirac": 6253,
      "Ġpicture": 6254,
      "foot": 6255,
      "Ġauthorities": 6256,
      "Ġinnkeeper": 6257,
      "Ġreveal": 6258,
      "Ġavail": 6259,
      "Ġfulfil": 6260,
      "Ġspirit": 6261,
      "Ġconnected": 6262,
      "Ġurged": 6263,
      "Ġproduce": 6264,
      "ĠXXX": 6265,
      "Ġdistinctly": 6266,
      "Ġelectronic": 6267,
      "veloped": 6268,
      "plicity": 6269,
      "Ġelegant": 6270,
      "Ġbuilding": 6271,
      "Ġestablishment": 6272,
      "limited": 6273,
      "Ġwolves": 6274,
      "Ġsmugglers": 6275,
      "strength": 6276,
      "itchen": 6277,
      "Ġvoices": 6278,
      "epelini": 6279,
      "Ġreckon": 6280,
      "Ġresponded": 6281,
      ",'": 6282,
      "Adieu": 6283,
      "Duncan": 6284,
      "Eng": 6285,
      "Since": 6286,
      "ais": 6287,
      "bou": 6288,
      "beneath": 6289,
      "done": 6290,
      "eight": 6291,
      "fold": 6292,
      "felt": 6293,
      "flu": 6294,
      "gion": 6295,
      "ilight": 6296,
      "line": 6297,
      "pent": 6298,
      "rating": 6299,
      "sy": 6300,
      "sum": 6301,
      "vated": 6302,
      "wished": 6303,
      "whether": 6304,
      "reason": 6305,
      "Ġwid": 6306,
      "Ġsounded": 6307,
      "Ġsize": 6308,
      "Ġod": 6309,
      "Ġopera": 6310,
      "hable": 6311,
      "eries": 6312,
      "Ġmult": 6313,
      "Ġbill": 6314,
      "Ġfarm": 6315,
      "Ġfreed": 6316,
      "Ġfisher": 6317,
      "Ġcattle": 6318,
      "Ġcoffee": 6319,
      "around": 6320,
      "ese": 6321,
      "Ġhide": 6322,
      "Ġpil": 6323,
      "Ġpacket": 6324,
      "asants": 6325,
      "athed": 6326,
      "omach": 6327,
      "Ġrese": 6328,
      "Ġrele": 6329,
      "Ġreass": 6330,
      "stery": 6331,
      "Ġeloqu": 6332,
      "Ġgame": 6333,
      "icing": 6334,
      "Ġwhist": 6335,
      "alf": 6336,
      "alm": 6337,
      "ĠMed": 6338,
      "Ġaspect": 6339,
      "Ġasking": 6340,
      "Ġupper": 6341,
      "urd": 6342,
      "Ġstakes": 6343,
      "ctual": 6344,
      "Ġdeed": 6345,
      "Ġdemon": 6346,
      "Ġsevent": 6347,
      "ĠAnt": 6348,
      "ands": 6349,
      "ĠCan": 6350,
      "Ġdogs": 6351,
      "ourse": 6352,
      "accompan": 6353,
      "Ġwilling": 6354,
      "ĠHas": 6355,
      "ĠHalley": 6356,
      "ĠPenelon": 6357,
      "ĠGen": 6358,
      "ĠGlasgow": 6359,
      "uscan": 6360,
      "ounds": 6361,
      "Ġcountries": 6362,
      "ĠFlore": 6363,
      "ĠFebruary": 6364,
      "ĠSelim": 6365,
      "ĠSeveral": 6366,
      "geograp": 6367,
      "Ġrou": 6368,
      "Ġard": 6369,
      "Ġartist": 6370,
      "Ġleather": 6371,
      "Ġjest": 6372,
      "Ġrolling": 6373,
      "Ġagreement": 6374,
      "rup": 6375,
      "reeze": 6376,
      "Ġhandle": 6377,
      "Ġquar": 6378,
      "abor": 6379,
      "Ġdisdain": 6380,
      "Ġperceiving": 6381,
      "Ġdesk": 6382,
      "plom": 6383,
      "claim": 6384,
      "Ġresounded": 6385,
      "Ġclub": 6386,
      "Ġcargo": 6387,
      "Ġobscurity": 6388,
      "Ġscattered": 6389,
      "ĠOur": 6390,
      "ĠOpera": 6391,
      "Ġmarch": 6392,
      "oubles": 6393,
      "Ġaddition": 6394,
      "Ġanswering": 6395,
      "Ġflash": 6396,
      "Ġpeasant": 6397,
      "Ġexceed": 6398,
      "ĠJacques": 6399,
      "Ġpah": 6400,
      "Ġeste": 6401,
      "ĠAtlantic": 6402,
      "prot": 6403,
      "Ġhoarse": 6404,
      "pleasure": 6405,
      "Ġdifference": 6406,
      "ension": 6407,
      "Ġawoke": 6408,
      "Ġfourth": 6409,
      "aws": 6410,
      "ouncing": 6411,
      "Ġfearing": 6412,
      "Ġincome": 6413,
      "ĠIndia": 6414,
      "Ġshipowner": 6415,
      "Ġvessels": 6416,
      "Ġfootsteps": 6417,
      "Ġrelative": 6418,
      "Ġsecrets": 6419,
      "Ġobserve": 6420,
      "ubian": 6421,
      "Ġinterested": 6422,
      "Ġcrossing": 6423,
      "Ġjournal": 6424,
      "Ġhumble": 6425,
      "Ġangle": 6426,
      "Ġdescending": 6427,
      "Ġ25": 6428,
      "Ġ28": 6429,
      "Ġexcite": 6430,
      "Ġdestined": 6431,
      "Ġfreely": 6432,
      "Ġcomplexion": 6433,
      "untarily": 6434,
      "Ġruins": 6435,
      "asket": 6436,
      "Ġsadness": 6437,
      "visit": 6438,
      "pendence": 6439,
      "Ġrecollected": 6440,
      "Ġbelongs": 6441,
      "Ġexecuted": 6442,
      "better": 6443,
      "Ġrequested": 6444,
      "Ġphr": 6445,
      "ĠChamber": 6446,
      "Ġconcerned": 6447,
      "Ġcustoms": 6448,
      "baron": 6449,
      "grace": 6450,
      "Ġprotected": 6451,
      "Ġsolitude": 6452,
      "Ġpaths": 6453,
      "ributed": 6454,
      "Ġeaten": 6455,
      "Ġfortunately": 6456,
      "Ġdescription": 6457,
      "Ġcommunicated": 6458,
      "Ġpoliteness": 6459,
      "companions": 6460,
      "Ġdistinguished": 6461,
      "Ġpreparations": 6462,
      "Ġvictims": 6463,
      "Ġsuspicion": 6464,
      "mounted": 6465,
      "uckland": 6466,
      "Ġpatient": 6467,
      "ĠMaori": 6468,
      "iastic": 6469,
      "Ġcomfortable": 6470,
      "Ġthreatened": 6471,
      "Ġphysician": 6472,
      "Ġimpatience": 6473,
      "Everything": 6474,
      "Ġgarments": 6475,
      "Ġconcluded": 6476,
      "Ġapprehens": 6477,
      "Ġwonderful": 6478,
      "Ġrarely": 6479,
      "ology": 6480,
      "Ġanticipated": 6481,
      "Ġadopted": 6482,
      "Barrois": 6483,
      "Ġdwelling": 6484,
      "Ġtremble": 6485,
      "Ġculpr": 6486,
      "Ġbodies": 6487,
      "wildered": 6488,
      "Ġstupefied": 6489,
      "emonade": 6490,
      "Ġadjoining": 6491,
      "Ġinvalid": 6492,
      "Ġstormy": 6493,
      "Ġlibrary": 6494,
      "Ġvelvet": 6495,
      "25": 6496,
      "29": 6497,
      "CT": 6498,
      "Doubtless": 6499,
      "Fortunately": 6500,
      "Jacques": 6501,
      "LE": 6502,
      "ME": 6503,
      "Mulready": 6504,
      "Our": 6505,
      "THE": 6506,
      "bol": 6507,
      "cast": 6508,
      "cab": 6509,
      "eat": 6510,
      "eune": 6511,
      "ki": 6512,
      "kato": 6513,
      "lad": 6514,
      "motion": 6515,
      "nar": 6516,
      "ope": 6517,
      "possible": 6518,
      "run": 6519,
      "rict": 6520,
      "sure": 6521,
      "sper": 6522,
      "wed": 6523,
      "yl": 6524,
      "Ġtaboo": 6525,
      "Ġthee": 6526,
      "reached": 6527,
      "Ġwest": 6528,
      "Ġshed": 6529,
      "Ġsong": 6530,
      "isk": 6531,
      "isons": 6532,
      "iscu": 6533,
      "Ġmars": 6534,
      "Ġmater": 6535,
      "Ġmatch": 6536,
      "Ġmules": 6537,
      "Ġfurious": 6538,
      "Ġcatch": 6539,
      "antern": 6540,
      "aration": 6541,
      "Ġhouses": 6542,
      "Ġpour": 6543,
      "Ġpull": 6544,
      "Ġparent": 6545,
      "Ġpowder": 6546,
      "asks": 6547,
      "atur": 6548,
      "Ġlosing": 6549,
      "Ġluck": 6550,
      "Ġlantern": 6551,
      "Ġrelig": 6552,
      "lere": 6553,
      "leaving": 6554,
      "ental": 6555,
      "entric": 6556,
      "Ġbeard": 6557,
      "Ġgigantic": 6558,
      "icular": 6559,
      "lded": 6560,
      "irmed": 6561,
      "ĠMount": 6562,
      "etite": 6563,
      "terrible": 6564,
      "Ġstated": 6565,
      "Ġstage": 6566,
      "Ġmember": 6567,
      "ĠAlexand": 6568,
      "andy": 6569,
      "ntin": 6570,
      "ilance": 6571,
      "orts": 6572,
      "Ġsob": 6573,
      "quet": 6574,
      "Ġsupre": 6575,
      "acific": 6576,
      "accompl": 6577,
      "Ġbutt": 6578,
      "Ġbutton": 6579,
      "ranite": 6580,
      "Ġherd": 6581,
      "ĠDon": 6582,
      "ĠHonor": 6583,
      "osited": 6584,
      "Ġmanaged": 6585,
      "tol": 6586,
      "ĠGood": 6587,
      "emb": 6588,
      "emet": 6589,
      "embar": 6590,
      "Ġalas": 6591,
      "Ġaltogether": 6592,
      "Ġwheels": 6593,
      "ĠFOR": 6594,
      "ĠSince": 6595,
      "ĠSeptember": 6596,
      "ccentric": 6597,
      "Ġrate": 6598,
      "Ġrush": 6599,
      "Ġsheet": 6600,
      "Ġamuse": 6601,
      "Ġarg": 6602,
      "Ġlevel": 6603,
      "Ġabode": 6604,
      "ĠLond": 6605,
      "Ġrope": 6606,
      "Ġshared": 6607,
      "ĠWhere": 6608,
      ".\"]": 6609,
      "ende": 6610,
      "Ġspent": 6611,
      "aching": 6612,
      "Ġenable": 6613,
      "Ġremind": 6614,
      "Ġremove": 6615,
      "owned": 6616,
      "Ġpasses": 6617,
      "Ġreserved": 6618,
      "Ġbride": 6619,
      "mbers": 6620,
      "Ġclass": 6621,
      "Ġclosing": 6622,
      "Ġseriously": 6623,
      "Ġsergeant": 6624,
      "tyard": 6625,
      "udes": 6626,
      "Ġpresume": 6627,
      "Ġobed": 6628,
      "Ġimprison": 6629,
      "Ġoffering": 6630,
      "Ġassoci": 6631,
      "Ġrecent": 6632,
      "ĠOf": 6633,
      "Ġapplied": 6634,
      "Ġconspir": 6635,
      "Ġmarble": 6636,
      "ext": 6637,
      "exam": 6638,
      "Ġfollows": 6639,
      "Ġbegged": 6640,
      "cannot": 6641,
      "comfort": 6642,
      "Ġconfident": 6643,
      "Ġfortress": 6644,
      "Ġdraught": 6645,
      "âĢľâĢĺâĢľ": 6646,
      "Ġgilded": 6647,
      "Ġsilently": 6648,
      "Ġdoubted": 6649,
      "Ġturnkey": 6650,
      "Ġsubmit": 6651,
      "Ġpoints": 6652,
      "Ġ10": 6653,
      "ĠCountess": 6654,
      "eclere": 6655,
      "countenance": 6656,
      "Ġdeadly": 6657,
      "Ġchurch": 6658,
      "Ġskin": 6659,
      "Ġhasten": 6660,
      "whole": 6661,
      "mediate": 6662,
      "ĠEngland": 6663,
      "Ġhorseback": 6664,
      "Ġadmitted": 6665,
      "Ġfifth": 6666,
      "uesnel": 6667,
      "Ġ27": 6668,
      "Ġredoubled": 6669,
      "Ġencir": 6670,
      "Ġencoura": 6671,
      "?âĢĻâĢĶâĢĺ": 6672,
      "Ġoccupy": 6673,
      "Ġanxiously": 6674,
      "utenant": 6675,
      "Only": 6676,
      "Ġmerchant": 6677,
      "Ġcommander": 6678,
      "Ġlowered": 6679,
      "Ġruined": 6680,
      "Ġbushes": 6681,
      "Ġsaddle": 6682,
      "Ġtemper": 6683,
      "impossible": 6684,
      "recisely": 6685,
      "Ġconstant": 6686,
      "carried": 6687,
      "Ġplainly": 6688,
      "eech": 6689,
      "Ġprevailed": 6690,
      "Ġincrease": 6691,
      "however": 6692,
      "aikato": 6693,
      "Ġprinci": 6694,
      "Ġvaluable": 6695,
      "Ġbrigadier": 6696,
      "Ġhurried": 6697,
      "Ġguarded": 6698,
      "Ġinquiry": 6699,
      "Ġadmirable": 6700,
      "Ġsplendor": 6701,
      "ĠLeghorn": 6702,
      "ĠLegion": 6703,
      "Ġspectators": 6704,
      "departure": 6705,
      "Ġcatapaz": 6706,
      "incre": 6707,
      "Ġcreatures": 6708,
      "Ġregarded": 6709,
      "Ġconsequence": 6710,
      "Ġdeny": 6711,
      "Ġshrugging": 6712,
      "Ġstroke": 6713,
      "ĠEuropean": 6714,
      "Ġtenderness": 6715,
      "Ġenerget": 6716,
      "Ġindifferent": 6717,
      "Ġcomrade": 6718,
      "Ġcomrades": 6719,
      "Ġlatitude": 6720,
      "Ġtheatre": 6721,
      "Ġlifted": 6722,
      "Ġstationed": 6723,
      "Ġcomprehend": 6724,
      "Ġreplaced": 6725,
      "Ġweeping": 6726,
      "Ġceremony": 6727,
      "Ġfeeble": 6728,
      "Ġ1862": 6729,
      "Ġpicturesque": 6730,
      "Ġbridge": 6731,
      "Ġconsciousness": 6732,
      "Impossible": 6733,
      "Ġchimney": 6734,
      "Ġembroidered": 6735,
      "Ġwarriors": 6736,
      "Ġantechamber": 6737,
      "English": 6738,
      "Ġsupreme": 6739,
      "65": 6740,
      "Bra": 6741,
      "Cha": 6742,
      "Give": 6743,
      "Having": 6744,
      "Help": 6745,
      "More": 6746,
      "Qu": 6747,
      "Such": 6748,
      "bel": 6749,
      "bird": 6750,
      "cured": 6751,
      "def": 6752,
      "dark": 6753,
      "doubt": 6754,
      "during": 6755,
      "each": 6756,
      "event": 6757,
      "fin": 6758,
      "fire": 6759,
      "govern": 6760,
      "host": 6761,
      "ient": 6762,
      "ially": 6763,
      "jour": 6764,
      "mocc": 6765,
      "minded": 6766,
      "nut": 6767,
      "oom": 6768,
      "oly": 6769,
      "phe": 6770,
      "pay": 6771,
      "post": 6772,
      "rich": 6773,
      "sen": 6774,
      "sight": 6775,
      "sol": 6776,
      "taken": 6777,
      "ule": 6778,
      "Ġz": 6779,
      "Ġtorn": 6780,
      "inen": 6781,
      "Ġwise": 6782,
      "outer": 6783,
      "Ġowing": 6784,
      "erated": 6785,
      "erving": 6786,
      "oring": 6787,
      "Ġblock": 6788,
      "itute": 6789,
      "Ġfund": 6790,
      "ancy": 6791,
      "arri": 6792,
      "Ġdate": 6793,
      "Ġduties": 6794,
      "Ġpicked": 6795,
      "Ġpiano": 6796,
      "Ġincon": 6797,
      "Ġyard": 6798,
      "Ġrear": 6799,
      "Ġreward": 6800,
      "Ġreappeared": 6801,
      "stretched": 6802,
      "Ġeating": 6803,
      "Ġeccentric": 6804,
      "immediately": 6805,
      "entire": 6806,
      "Ġbeast": 6807,
      "Ġbearer": 6808,
      "Ġgum": 6809,
      "Ġgroom": 6810,
      "Ġgranite": 6811,
      "Ġwhither": 6812,
      "Ġthin": 6813,
      "Ġthou": 6814,
      "ĠMan": 6815,
      "ĠMalt": 6816,
      "rice": 6817,
      "Ġascent": 6818,
      "race": 6819,
      "ursed": 6820,
      "Ġstars": 6821,
      "Ġstret": 6822,
      "Ġstomach": 6823,
      "Ġmeat": 6824,
      "liest": 6825,
      "ĠAss": 6826,
      "ilst": 6827,
      "ilion": 6828,
      "ago": 6829,
      "Ġexcess": 6830,
      "Ġsoil": 6831,
      "Ġsugg": 6832,
      "ela": 6833,
      "Ġvirt": 6834,
      "ĠPe": 6835,
      "ĠPray": 6836,
      "aker": 6837,
      "Ġnod": 6838,
      "Ġreputation": 6839,
      "indiff": 6840,
      "ĠSometimes": 6841,
      "ĠTepelini": 6842,
      "ĠTuscan": 6843,
      "Ġratt": 6844,
      "ĠLeclere": 6845,
      "lenched": 6846,
      "Ġwhenever": 6847,
      "ĠWaikato": 6848,
      "Ġmadman": 6849,
      "ilet": 6850,
      "Ġdisappear": 6851,
      "Ġdisagreeable": 6852,
      "means": 6853,
      "ĠRE": 6854,
      "Ġpop": 6855,
      "rels": 6856,
      "Ġdeserve": 6857,
      "Ġreminded": 6858,
      "Ġpassion": 6859,
      "onsense": 6860,
      "became": 6861,
      "Ġfriendly": 6862,
      "Ġgrasp": 6863,
      "Ġcompleted": 6864,
      "uding": 6865,
      "Ġappeal": 6866,
      "Ġrival": 6867,
      "Ġrifle": 6868,
      "lessness": 6869,
      "ĠNubian": 6870,
      "Ġattract": 6871,
      "Ġgoodness": 6872,
      "Ġintim": 6873,
      "Ġpersist": 6874,
      "lieved": 6875,
      "Ġmeanwhile": 6876,
      "Ġflaming": 6877,
      "Ġvision": 6878,
      "ĠJeune": 6879,
      "axe": 6880,
      "Ġtreacher": 6881,
      "Ġconfusion": 6882,
      ".âĢĻâĢĶâĢĺ": 6883,
      "Ġpleasant": 6884,
      "Ġresting": 6885,
      "Ġcourtyard": 6886,
      "Ġregister": 6887,
      "Ġdepth": 6888,
      "Ġdeputy": 6889,
      "Ġspeaks": 6890,
      "Ġsetting": 6891,
      "Ġfourteen": 6892,
      "countered": 6893,
      "Ġrequis": 6894,
      "Ġcertainty": 6895,
      "Ġwants": 6896,
      "cript": 6897,
      "Ġransom": 6898,
      "Ġvisiting": 6899,
      "Ġcho": 6900,
      "feeling": 6901,
      "willing": 6902,
      "Ġsmiles": 6903,
      "Ġsecretary": 6904,
      "Ġillustrious": 6905,
      "Ġobservation": 6906,
      "Ġtrif": 6907,
      "Ġclever": 6908,
      "Ġveins": 6909,
      "Ġveiled": 6910,
      "Ġadmire": 6911,
      "disp": 6912,
      "Ġcasting": 6913,
      "Ġprofession": 6914,
      "Ġ20": 6915,
      "Ġengine": 6916,
      "Ġislands": 6917,
      "Ġdelightful": 6918,
      "box": 6919,
      "ĠKara": 6920,
      "Ġsaluted": 6921,
      "tremb": 6922,
      "Ġdisposal": 6923,
      "Ġfirmly": 6924,
      "ĠCorso": 6925,
      "black": 6926,
      "Ġbreathe": 6927,
      "change": 6928,
      "Ġwitnessed": 6929,
      "Ġprotection": 6930,
      "Ġbeseech": 6931,
      "Ġpaternal": 6932,
      "Ġencamped": 6933,
      "chet": 6934,
      "ĠSoon": 6935,
      "quisite": 6936,
      "Ġgravely": 6937,
      "Ġlimited": 6938,
      "Ġaccomplish": 6939,
      "Ġprivile": 6940,
      "Ġhardly": 6941,
      "Ġsufferings": 6942,
      "Ġinhabitants": 6943,
      "Ġwounds": 6944,
      "Ġintroduce": 6945,
      "Ġstreams": 6946,
      "mountain": 6947,
      "Ġplaying": 6948,
      "Ġweakness": 6949,
      "Ġfulfilled": 6950,
      "Ġreceiving": 6951,
      "TION": 6952,
      "given": 6953,
      "Ġappreci": 6954,
      "Ġassembled": 6955,
      "Ġcalculated": 6956,
      "orescent": 6957,
      "Ġoriginal": 6958,
      "subject": 6959,
      "ĠUnited": 6960,
      "sailors": 6961,
      "ĠQuesnel": 6962,
      "Ġdaily": 6963,
      "Ġdiscussion": 6964,
      "Ġparalytic": 6965,
      "Ġhighest": 6966,
      "Ġcopyright": 6967,
      "silence": 6968,
      "Ġenthusiastic": 6969,
      "began": 6970,
      "Ġwiped": 6971,
      "Ġriches": 6972,
      "iasm": 6973,
      "Ġstupid": 6974,
      "Ġprolonged": 6975,
      "beautiful": 6976,
      "Ġswiftness": 6977,
      "Ġcolle": 6978,
      "Ġrespons": 6979,
      "concealed": 6980,
      "Ġinterpretation": 6981,
      "ĠBeaucaire": 6982,
      "Ġsubterranean": 6983,
      "Ġcatastrophe": 6984,
      "Meantime": 6985,
      "Ġatmosphere": 6986,
      "Ġshoot": 6987,
      "aturday": 6988,
      "emetery": 6989,
      "**": 6990,
      "18": 6991,
      "27": 6992,
      ";âĢĻ": 6993,
      "AIN": 6994,
      "Bah": 6995,
      "Car": 6996,
      "En": 6997,
      "GE": 6998,
      "Honor": 6999,
      "Peppino": 7000,
      "Precisely": 7001,
      "Tis": 7002,
      "Tom": 7003,
      "_,âĢĿ": 7004,
      "ault": 7005,
      "bow": 7006,
      "bro": 7007,
      "bank": 7008,
      "creat": 7009,
      "courage": 7010,
      "cicer": 7011,
      "dream": 7012,
      "doubtless": 7013,
      "fur": 7014,
      "hore": 7015,
      "horse": 7016,
      "iver": 7017,
      "lor": 7018,
      "lain": 7019,
      "lance": 7020,
      "mo": 7021,
      "move": 7022,
      "oli": 7023,
      "phan": 7024,
      "ral": 7025,
      "ses": 7026,
      "situ": 7027,
      "shad": 7028,
      "upp": 7029,
      "vas": 7030,
      "vive": 7031,
      "wit": 7032,
      "Ġtent": 7033,
      "heme": 7034,
      "Ġacted": 7035,
      "inent": 7036,
      "inous": 7037,
      "rend": 7038,
      "reated": 7039,
      "Ġwis": 7040,
      "Ġwond": 7041,
      "ouched": 7042,
      "erves": 7043,
      "erman": 7044,
      "Ġmild": 7045,
      "Ġbit": 7046,
      "Ġbattle": 7047,
      "Ġbonds": 7048,
      "Ġbreeze": 7049,
      "itations": 7050,
      "Ġfill": 7051,
      "Ġfield": 7052,
      "Ġfainted": 7053,
      "Ġcoo": 7054,
      "Ġcook": 7055,
      "anx": 7056,
      "Ġtore": 7057,
      "Ġtool": 7058,
      "arks": 7059,
      "Ġdining": 7060,
      "Ġinse": 7061,
      "Ġhaught": 7062,
      "Ġlaug": 7063,
      "Ġlemonade": 7064,
      "otions": 7065,
      "search": 7066,
      "Ġelder": 7067,
      "entertain": 7068,
      "Ġbelief": 7069,
      "Ġgard": 7070,
      "iculous": 7071,
      "ldom": 7072,
      "riolet": 7073,
      "verted": 7074,
      "rolled": 7075,
      "Ġung": 7076,
      "terror": 7077,
      "Ġstories": 7078,
      "Ġdeceive": 7079,
      "Ġmechan": 7080,
      "Ġmystery": 7081,
      "lio": 7082,
      "lies": 7083,
      "ĠAuckland": 7084,
      "Ġcontempt": 7085,
      "Ġsuspect": 7086,
      "account": 7087,
      "thirty": 7088,
      "astic": 7089,
      "ospo": 7090,
      "unch": 7091,
      "unks": 7092,
      "ĠPet": 7093,
      "ĠPont": 7094,
      "ĠPacific": 7095,
      "Ġliber": 7096,
      "ĠBur": 7097,
      "Ġaltern": 7098,
      "orders": 7099,
      "Ġweary": 7100,
      "ĠSon": 7101,
      "ĠSal": 7102,
      "Ġamiable": 7103,
      "Ġfeast": 7104,
      "Ġabund": 7105,
      "Ġjoke": 7106,
      "onde": 7107,
      "Ġpled": 7108,
      "ieves": 7109,
      "lose": 7110,
      "Ġshake": 7111,
      "ended": 7112,
      "resses": 7113,
      "Ġunconscious": 7114,
      "meet": 7115,
      "ĠRita": 7116,
      "Ġpoet": 7117,
      "decl": 7118,
      "Ġdescent": 7119,
      "Ġdesperate": 7120,
      "Ġpassport": 7121,
      "Ġresistance": 7122,
      "Ġresources": 7123,
      "become": 7124,
      "Ġblame": 7125,
      "Ġcompar": 7126,
      "Ġcomply": 7127,
      "inted": 7128,
      "Ġspend": 7129,
      "Ġpartly": 7130,
      "Ġwherever": 7131,
      "Ġintimate": 7132,
      "Ġmarks": 7133,
      "excl": 7134,
      "Ġflag": 7135,
      "Ġpear": 7136,
      "Ġguided": 7137,
      "ĠJune": 7138,
      "Ġsailing": 7139,
      "vidently": 7140,
      "Ġsignify": 7141,
      "Ġterm": 7142,
      "Ġkeen": 7143,
      "Ġlights": 7144,
      "Ġsupplied": 7145,
      "Ġsupposing": 7146,
      "Ġrightly": 7147,
      "Ġcrushed": 7148,
      "Ġinduce": 7149,
      "pleasant": 7150,
      "Ġturns": 7151,
      "doir": 7152,
      "Ġtroubles": 7153,
      "Ġoccur": 7154,
      "Ġreaders": 7155,
      "Ġreadily": 7156,
      "Ġpromises": 7157,
      "earth": 7158,
      "Ġsentence": 7159,
      "Ġsentiment": 7160,
      "Ġloc": 7161,
      "Ġloves": 7162,
      "Ġaffirm": 7163,
      "Ġeasier": 7164,
      "Ġdelir": 7165,
      "Ġactive": 7166,
      "Ġactions": 7167,
      "Ġmode": 7168,
      "Ġdivided": 7169,
      "Ġsumm": 7170,
      "Ġsurely": 7171,
      "ificant": 7172,
      "Ġpropri": 7173,
      "Ġproposal": 7174,
      "Ġsecretaire": 7175,
      "Ġinfam": 7176,
      "eye": 7177,
      "Ġadvise": 7178,
      "Ġvex": 7179,
      "Ġveget": 7180,
      "Ġmasters": 7181,
      "Ġcontrad": 7182,
      "Ġparad": 7183,
      "Ġdecor": 7184,
      "Ġdecision": 7185,
      "cureur": 7186,
      "Ġfixing": 7187,
      "Ġpaying": 7188,
      "Ġmurmur": 7189,
      "Ġdangers": 7190,
      "Ġhighly": 7191,
      "Ġsearching": 7192,
      "ermain": 7193,
      "Ġportrait": 7194,
      "Ġgloves": 7195,
      "Ġutterance": 7196,
      "Ġsubjects": 7197,
      "Ġrude": 7198,
      "Ġrespectfully": 7199,
      "smile": 7200,
      "Ġofficial": 7201,
      "Ġdrunk": 7202,
      "Ġinclosure": 7203,
      "Ġpunish": 7204,
      "Ġreports": 7205,
      "Ġeagerness": 7206,
      "replied": 7207,
      "Ġcease": 7208,
      "Ġdescribe": 7209,
      "Ġcurtains": 7210,
      "Ġdecidedly": 7211,
      "Ġprojects": 7212,
      "Ġrestrained": 7213,
      "strugg": 7214,
      "possess": 7215,
      "Ġpatience": 7216,
      "Ġsafely": 7217,
      "Ġpenetrate": 7218,
      "Ġpenetrating": 7219,
      "Ġestablished": 7220,
      "instead": 7221,
      "Ġstatue": 7222,
      "Ġpreferred": 7223,
      "Ġconnection": 7224,
      "Ġkissed": 7225,
      "prisoners": 7226,
      "ĠMarquis": 7227,
      "Ġwandered": 7228,
      "Ġ1815": 7229,
      "Ġearnestly": 7230,
      "Ġwretches": 7231,
      "Ġembraced": 7232,
      "Ġobstin": 7233,
      "Ġrejoined": 7234,
      "ĠAmÃ©lie": 7235,
      "Ġconsulted": 7236,
      "Ġcivili": 7237,
      "Ġhigher": 7238,
      "Ġarticle": 7239,
      "Ġbenefact": 7240,
      "Ġfiery": 7241,
      "Ġclimbed": 7242,
      "Ġtorrents": 7243,
      "Ġhospitality": 7244,
      "Australia": 7245,
      "Ġsquare": 7246,
      "ĠAmerica": 7247,
      "Ġvapor": 7248,
      "Luigi": 7249,
      "Ġrescue": 7250,
      "Ġinstructions": 7251,
      "circumstances": 7252,
      "Wilson": 7253,
      "Ġtavern": 7254,
      "Ġwrecked": 7255,
      "Ġextremity": 7256,
      "Ġroute": 7257,
      "Ġtrifling": 7258,
      "ospoli": 7259,
      "15": 7260,
      "23": 7261,
      "97": 7262,
      "Am": 7263,
      "Benedetto": 7264,
      "De": 7265,
      "Faria": 7266,
      "Ju": 7267,
      "None": 7268,
      "OO": 7269,
      "RI": 7270,
      "SE": 7271,
      "Sinbad": 7272,
      "aved": 7273,
      "best": 7274,
      "both": 7275,
      "cried": 7276,
      "certainly": 7277,
      "filled": 7278,
      "gave": 7279,
      "gentle": 7280,
      "grief": 7281,
      "honor": 7282,
      "iom": 7283,
      "iqu": 7284,
      "lost": 7285,
      "mant": 7286,
      "mus": 7287,
      "matter": 7288,
      "round": 7289,
      "rowed": 7290,
      "sal": 7291,
      "suddenly": 7292,
      "tis": 7293,
      "ww": 7294,
      "zure": 7295,
      "Ġident": 7296,
      "Ġouter": 7297,
      "Ġtu": 7298,
      "heaven": 7299,
      "Ġaim": 7300,
      "received": 7301,
      "Ġoper": 7302,
      "erred": 7303,
      "enes": 7304,
      "encies": 7305,
      "Ġmast": 7306,
      "ontain": 7307,
      "oria": 7308,
      "Ġbas": 7309,
      "Ġbade": 7310,
      "Ġbounded": 7311,
      "Ġbills": 7312,
      "Ġbiscu": 7313,
      "Ġfired": 7314,
      "Ġfires": 7315,
      "Ġcable": 7316,
      "Ġcav": 7317,
      "Ġcaut": 7318,
      "Ġcoff": 7319,
      "aroo": 7320,
      "Ġpir": 7321,
      "Ġpred": 7322,
      "Ġphi": 7323,
      "ashing": 7324,
      "attempt": 7325,
      "Ġlinen": 7326,
      "seven": 7327,
      "Ġreven": 7328,
      "lev": 7329,
      "least": 7330,
      "strange": 7331,
      "ĠeB": 7332,
      "imag": 7333,
      "enter": 7334,
      "Ġbewildered": 7335,
      "Ġgle": 7336,
      "Ġgift": 7337,
      "Ġsack": 7338,
      "Ġthieves": 7339,
      "uting": 7340,
      "iring": 7341,
      "ĠMany": 7342,
      "raction": 7343,
      "ĠâĢľ_": 7344,
      "Ġmembers": 7345,
      "ams": 7346,
      "people": 7347,
      "ilhan": 7348,
      "ĠĠĠ": 7349,
      "elled": 7350,
      "Ġdog": 7351,
      "Ġexisted": 7352,
      "Ġexagger": 7353,
      "Ġsocial": 7354,
      "Ġsuspe": 7355,
      "Ġsuitable": 7356,
      "oolish": 7357,
      "tee": 7358,
      "ousin": 7359,
      "ousers": 7360,
      "ulously": 7361,
      "Ġkitchen": 7362,
      "effect": 7363,
      "Ġorg": 7364,
      "ĠPRO": 7365,
      "Ġships": 7366,
      "ĠBou": 7367,
      "emp": 7368,
      "ĠSm": 7369,
      "ĠTake": 7370,
      "Ġrasc": 7371,
      "Ġupstairs": 7372,
      "Ġtwilight": 7373,
      "ept": 7374,
      "ĠWould": 7375,
      "achment": 7376,
      "mented": 7377,
      "Ġenchant": 7378,
      "Ġthanked": 7379,
      "Ġlikewise": 7380,
      "Ġprefect": 7381,
      "Ġpretend": 7382,
      "Ġresume": 7383,
      "Ġcloth": 7384,
      "Ġclung": 7385,
      "Ġours": 7386,
      "Ġgrasped": 7387,
      "Ġgranted": 7388,
      "Ġcomprom": 7389,
      "Ġcarries": 7390,
      "Ġpreserve": 7391,
      "Ġworst": 7392,
      "Ġworking": 7393,
      "Ġscar": 7394,
      "intro": 7395,
      "intellig": 7396,
      "ĠOri": 7397,
      "Ġthoughtful": 7398,
      "Ġattire": 7399,
      "Ġattitude": 7400,
      "Ġmarrying": 7401,
      "expl": 7402,
      "Ġflow": 7403,
      "Ġflax": 7404,
      "Ġcommiss": 7405,
      "oubted": 7406,
      "Ġsignified": 7407,
      "comm": 7408,
      "Ġconfirmed": 7409,
      "prin": 7410,
      "Ġwaiter": 7411,
      "Ġwinding": 7412,
      "Ġsufficed": 7413,
      "Ġpurple": 7414,
      "Ġregards": 7415,
      "Ġ100": 7416,
      "Ġforming": 7417,
      "Ġcareful": 7418,
      "Ġawake": 7419,
      "armela": 7420,
      "ounter": 7421,
      "Ġforeign": 7422,
      "Ġappearing": 7423,
      "Ġsteep": 7424,
      "Ġchin": 7425,
      "Ġchose": 7426,
      "Ġstopping": 7427,
      "Ġseconds": 7428,
      "Ġkindled": 7429,
      "Ġexpressive": 7430,
      "police": 7431,
      "Ġdiplom": 7432,
      "Ġproport": 7433,
      "fts": 7434,
      "bye": 7435,
      "prec": 7436,
      "Ġinfinite": 7437,
      "Ġobserv": 7438,
      "eys": 7439,
      "Ġcheck": 7440,
      "Ġchemist": 7441,
      "Ġsounds": 7442,
      "Ġcolors": 7443,
      "atience": 7444,
      "Ġfacts": 7445,
      "ĠStates": 7446,
      "remain": 7447,
      "ermine": 7448,
      "object": 7449,
      "Ġprayed": 7450,
      "small": 7451,
      "Ġburnt": 7452,
      "Ġsympt": 7453,
      "Ġdreams": 7454,
      "ĠAbout": 7455,
      "blood": 7456,
      "Ġstraw": 7457,
      "Ġincreasing": 7458,
      "ridge": 7459,
      "Ġsending": 7460,
      "Ġcompliments": 7461,
      "Ġcrack": 7462,
      "Ġpunctual": 7463,
      "ĠChar": 7464,
      "Ġexcepting": 7465,
      "Ġprotector": 7466,
      "minutes": 7467,
      "Ġsorrowful": 7468,
      "livered": 7469,
      "Ġjewels": 7470,
      "Ġfortunes": 7471,
      "Ġhurry": 7472,
      "Ġregretted": 7473,
      "Ġfatigued": 7474,
      "Ġextremely": 7475,
      "Ġexperience": 7476,
      "Ġtransl": 7477,
      "Ġmaintained": 7478,
      "Ġproceeding": 7479,
      "companion": 7480,
      "Ġaffectionate": 7481,
      "Ġfigures": 7482,
      "possession": 7483,
      "Ġspecim": 7484,
      "Providence": 7485,
      "Ġanchored": 7486,
      "Ġneighborhood": 7487,
      "iterary": 7488,
      "iterranean": 7489,
      "ĠNothing": 7490,
      "OUN": 7491,
      "Ġpatiently": 7492,
      "Ġbreathless": 7493,
      "Ġspringing": 7494,
      "Ġrecomp": 7495,
      "hensible": 7496,
      "Ġphysical": 7497,
      "Ġenjoyed": 7498,
      "Ġundertake": 7499,
      "Ġresembled": 7500,
      "amma": 7501,
      "approached": 7502,
      "Ġguns": 7503,
      "Ġconclusion": 7504,
      "Ġgraceful": 7505,
      "Ġprudence": 7506,
      "Ġpeaks": 7507,
      "fallen": 7508,
      "sometimes": 7509,
      "Ġpracticable": 7510,
      "Ġmeantime": 7511,
      "Ġorigin": 7512,
      "Ġweapon": 7513,
      "Ġpreceded": 7514,
      "Ġaudience": 7515,
      "Ġarrangements": 7516,
      "Ġdawn": 7517,
      "Ġreverie": 7518,
      "Ġsparkling": 7519,
      "carefully": 7520,
      "Ġsustained": 7521,
      "absence": 7522,
      "Ġmanifested": 7523,
      "Ġvolcano": 7524,
      "Ġnoisy": 7525,
      "recognized": 7526,
      "Ġingen": 7527,
      "Ġeternal": 7528,
      "Unfortunately": 7529,
      "family": 7530,
      "Ġsuspected": 7531,
      "Ġdispleased": 7532,
      "comprehensible": 7533,
      "Ġrepresent": 7534,
      "Ġeducation": 7535,
      "Ġacknowledged": 7536,
      "Ġsearched": 7537,
      "Ġskilful": 7538,
      "Ġpickaxe": 7539,
      "Ġnavig": 7540,
      "Ġnobility": 7541,
      "Ġaristocrat": 7542,
      "Ġphrase": 7543,
      "baroness": 7544,
      "motionless": 7545,
      "Ġobedience": 7546,
      "comfortable": 7547,
      "Ġencircled": 7548,
      "Ġprinciples": 7549,
      "HonorÃ©": 7550,
      "cicerone": 7551,
      "Ġtools": 7552,
      "Ġlaughed": 7553,
      "ontaine": 7554,
      "Ġsuspended": 7555,
      "Ġsymptoms": 7556,
      "11": 7557,
      "203": 7558,
      "303": 7559,
      "Fe": 7560,
      "Hush": 7561,
      "Per": 7562,
      "Pardon": 7563,
      "Read": 7564,
      "VI": 7565,
      "Would": 7566,
      "_;": 7567,
      "bation": 7568,
      "bott": 7569,
      "cry": 7570,
      "covered": 7571,
      "don": 7572,
      "favor": 7573,
      "fric": 7574,
      "fellow": 7575,
      "gar": 7576,
      "hish": 7577,
      "husband": 7578,
      "iven": 7579,
      "lines": 7580,
      "major": 7581,
      "money": 7582,
      "majesty": 7583,
      "ocious": 7584,
      "pun": 7585,
      "pret": 7586,
      "rices": 7587,
      "rina": 7588,
      "rative": 7589,
      "swe": 7590,
      "tri": 7591,
      "ture": 7592,
      "times": 7593,
      "vat": 7594,
      "vious": 7595,
      "wall": 7596,
      "watch": 7597,
      "ysm": 7598,
      "Åĵ": 7599,
      "Ġtur": 7600,
      "Ġtel": 7601,
      "Ġtones": 7602,
      "hear": 7603,
      "Ġazure": 7604,
      "inet": 7605,
      "inning": 7606,
      "Ġoars": 7607,
      "eding": 7608,
      "enc": 7609,
      "Ġmut": 7610,
      "Ġmask": 7611,
      "orious": 7612,
      "Ġbor": 7613,
      "Ġbid": 7614,
      "Ġbag": 7615,
      "Ġbooks": 7616,
      "Ġfile": 7617,
      "Ġcush": 7618,
      "Ġdumb": 7619,
      "escope": 7620,
      "âĢĿâĢĶ": 7621,
      "Ġhy": 7622,
      "Ġhuge": 7623,
      "Ġpant": 7624,
      "Ġpuzz": 7625,
      "asili": 7626,
      "Ġhal": 7627,
      "Ġhall": 7628,
      "Ġlog": 7629,
      "hattered": 7630,
      "Ġretained": 7631,
      "Ġreigned": 7632,
      "Ġrevel": 7633,
      "Ġrevived": 7634,
      "learned": 7635,
      "stem": 7636,
      "Ġbeating": 7637,
      "Ġgates": 7638,
      "Ġgathered": 7639,
      "icense": 7640,
      "Ġsag": 7641,
      "ioness": 7642,
      "ado": 7643,
      "illot": 7644,
      "Ġashore": 7645,
      "rah": 7646,
      "Ġunt": 7647,
      "Ġate": 7648,
      "urse": 7649,
      "Ġdepended": 7650,
      "Ġdelivered": 7651,
      "Ġseason": 7652,
      "Ġsealed": 7653,
      "ĠAra": 7654,
      "ĠCam": 7655,
      "ĠCard": 7656,
      "ĠChili": 7657,
      "istened": 7658,
      "anth": 7659,
      "Ġconverse": 7660,
      "Ġcongrat": 7661,
      "Ġexquisite": 7662,
      "quick": 7663,
      "acom": 7664,
      "ulch": 7665,
      "things": 7666,
      "third": 7667,
      "ĠHouse": 7668,
      "Ġalliance": 7669,
      "unction": 7670,
      "ĠPr": 7671,
      "Ġlivid": 7672,
      "today": 7673,
      "ĠGree": 7674,
      "Ġalter": 7675,
      "Ġnearest": 7676,
      "Ġnose": 7677,
      "Ġrepair": 7678,
      "Ġrepaired": 7679,
      "Ġknee": 7680,
      "ĠFort": 7681,
      "ĠSuddenly": 7682,
      "Ġprocured": 7683,
      "Ã©r": 7684,
      "Ġlear": 7685,
      "ĠLucc": 7686,
      "leng": 7687,
      "Ġhashish": 7688,
      "Ġusing": 7689,
      "Ġunivers": 7690,
      "Ġhandful": 7691,
      "Ġimmediate": 7692,
      "Ġdischar": 7693,
      "Ġdiscern": 7694,
      "Ġcannon": 7695,
      "Ġperished": 7696,
      "Ġpersec": 7697,
      "Ġspared": 7698,
      "ĠRospoli": 7699,
      "Ġencountered": 7700,
      "Ġpope": 7701,
      "Ġdesigned": 7702,
      "pless": 7703,
      "placed": 7704,
      "Ġremedy": 7705,
      "Ġram": 7706,
      "Ġpretended": 7707,
      "Ġboots": 7708,
      "Ġrespected": 7709,
      "Ġbrings": 7710,
      "Ġclay": 7711,
      "Ġclum": 7712,
      "Ġgrown": 7713,
      "retion": 7714,
      "Ġblows": 7715,
      "Ġcarved": 7716,
      "Ġcarpet": 7717,
      "Ġscream": 7718,
      "ints": 7719,
      "Ġthinks": 7720,
      "Ġassent": 7721,
      "Ġapply": 7722,
      "Ġglancing": 7723,
      "ulties": 7724,
      "Ġsecurity": 7725,
      "Ġdistrict": 7726,
      "Ġnevertheless": 7727,
      "Ġflatter": 7728,
      "forth": 7729,
      "Ġguides": 7730,
      "Ġgracious": 7731,
      "icken": 7732,
      "Ġways": 7733,
      "ugn": 7734,
      "ugust": 7735,
      "Ġesc": 7736,
      "Ġtreated": 7737,
      "Ġdrag": 7738,
      "Ġindic": 7739,
      "prof": 7740,
      "profound": 7741,
      "Ġpresenting": 7742,
      "Ġregion": 7743,
      "Ġregained": 7744,
      "Ġcarelessly": 7745,
      "Ġawaken": 7746,
      "Ġlocked": 7747,
      "rooms": 7748,
      "Ġranks": 7749,
      "Ġstead": 7750,
      "Ġdelayed": 7751,
      "Ġacting": 7752,
      "Ġgranddaughter": 7753,
      "hope": 7754,
      "Ġrelations": 7755,
      "Ġdrawer": 7756,
      "Ġbrand": 7757,
      "Ġobserving": 7758,
      "Ġharm": 7759,
      "Ġconversing": 7760,
      "coast": 7761,
      "Ġadvis": 7762,
      "brother": 7763,
      "Ġabsurd": 7764,
      "Ġirre": 7765,
      "Ġmidnight": 7766,
      "Ġevidence": 7767,
      "Ġeighteen": 7768,
      "Ġdestination": 7769,
      "Ġcrying": 7770,
      "Ġconsiderably": 7771,
      "happened": 7772,
      "Ġfloated": 7773,
      "Ġgloom": 7774,
      "irdle": 7775,
      "Ġstrongly": 7776,
      "voc": 7777,
      "Ġeffects": 7778,
      "Ġeffectually": 7779,
      "Ġmotioned": 7780,
      "unta": 7781,
      "ĠAllÃ©es": 7782,
      "Ġconstru": 7783,
      "Ġdreamed": 7784,
      "Ġdeclaration": 7785,
      "presence": 7786,
      "Ġbreathed": 7787,
      "speaking": 7788,
      "Ġvainly": 7789,
      "Ġbadly": 7790,
      "Ġimagined": 7791,
      "guard": 7792,
      "Ġcravat": 7793,
      "oniard": 7794,
      "acquaintance": 7795,
      "Ġprincess": 7796,
      "second": 7797,
      "Ġwooden": 7798,
      "----?\"": 7799,
      "Ġcrowded": 7800,
      "Ġformerly": 7801,
      "bbing": 7802,
      "marriage": 7803,
      "Ġcommunicate": 7804,
      "Ġpolitics": 7805,
      "ĠPalais": 7806,
      "Ġmiracle": 7807,
      "Ġremembrance": 7808,
      "Ġascend": 7809,
      "thoughts": 7810,
      "Ġmourning": 7811,
      "Ġauthority": 7812,
      "Ġbench": 7813,
      "Ġimpatient": 7814,
      "Ġimpatiently": 7815,
      "instant": 7816,
      "Ġresembling": 7817,
      "Ġspirits": 7818,
      "Ġassassinated": 7819,
      "Ġvigilance": 7820,
      "Ġtempor": 7821,
      "singular": 7822,
      "hours": 7823,
      "ĠEverything": 7824,
      "court": 7825,
      "Ġpractice": 7826,
      "Ġprovince": 7827,
      "Ġfamilies": 7828,
      "ĠScotland": 7829,
      "Ġcouch": 7830,
      "Ġpreceding": 7831,
      "Ġemerald": 7832,
      "Ġconvulsively": 7833,
      "Ġseaman": 7834,
      "Ġenthusiasm": 7835,
      "Ġrecommended": 7836,
      "faith": 7837,
      "Ġblew": 7838,
      "oxysm": 7839,
      "Ġmanifest": 7840,
      "Ġambition": 7841,
      "Ġpersuade": 7842,
      "Ġtriumph": 7843,
      "Ġtriumphant": 7844,
      "Ġslopes": 7845,
      "Ġdelicacy": 7846,
      "satisfied": 7847,
      "consider": 7848,
      "perfectly": 7849,
      "quartermaster": 7850,
      "Ġcontrol": 7851,
      "aggered": 7852,
      "Ġchances": 7853,
      "Ġbrutal": 7854,
      "Ġinherit": 7855,
      "stantin": 7856,
      "Ġstifled": 7857,
      "Ġswallowed": 7858,
      "ĠMeilhan": 7859,
      "Ġornamented": 7860,
      "Ġmiraculous": 7861,
      "Ġfreedom": 7862,
      "Ġpilot": 7863,
      "geographer": 7864,
      "Ġculprit": 7865,
      "Ġconspiracy": 7866,
      "Ġnodded": 7867,
      "indifference": 7868,
      "Ġrequisite": 7869,
      "Ġphial": 7870,
      "oubtedly": 7871,
      "Ġaristocratic": 7872,
      "Ġtelescope": 7873,
      "asiliki": 7874,
      ").": 7875,
      "Arab": 7876,
      "Baptistin": 7877,
      "CH": 7878,
      "Don": 7879,
      "Father": 7880,
      "Gutenberg": 7881,
      "Half": 7882,
      "IC": 7883,
      "Mr": 7884,
      "Mac": 7885,
      "Pray": 7886,
      "Pardieu": 7887,
      "RAN": 7888,
      "Stop": 7889,
      "Tw": 7890,
      "UL": 7891,
      "Yet": 7892,
      "aus": 7893,
      "boy": 7894,
      "bury": 7895,
      "cat": 7896,
      "cart": 7897,
      "cross": 7898,
      "calm": 7899,
      "dro": 7900,
      "dering": 7901,
      "fy": 7902,
      "field": 7903,
      "fifty": 7904,
      "gall": 7905,
      "gence": 7906,
      "gne": 7907,
      "gener": 7908,
      "hist": 7909,
      "hung": 7910,
      "hosp": 7911,
      "ien": 7912,
      "iant": 7913,
      "ials": 7914,
      "lers": 7915,
      "mur": 7916,
      "mast": 7917,
      "mmediately": 7918,
      "moved": 7919,
      "ni": 7920,
      "por": 7921,
      "pal": 7922,
      "pray": 7923,
      "polit": 7924,
      "pulch": 7925,
      "rus": 7926,
      "sion": 7927,
      "slight": 7928,
      "ships": 7929,
      "tle": 7930,
      "uv": 7931,
      "uing": 7932,
      "want": 7933,
      "wish": 7934,
      "women": 7935,
      "yard": 7936,
      "zvous": 7937,
      "Ġ...": 7938,
      "Ġtour": 7939,
      "Ġtaught": 7940,
      "Ġtailor": 7941,
      "inher": 7942,
      "inence": 7943,
      "inement": 7944,
      "repe": 7945,
      "Ġmud": 7946,
      "Ġmix": 7947,
      "Ġmasts": 7948,
      "Ġmoral": 7949,
      "orable": 7950,
      "Ġbathed": 7951,
      "itution": 7952,
      "Ġfest": 7953,
      "Ġcreek": 7954,
      "Ġcemetery": 7955,
      "Ġcousin": 7956,
      "Ġder": 7957,
      "Ġdamp": 7958,
      "Ġdoubled": 7959,
      "Ġdarted": 7960,
      "estern": 7961,
      "Ġhill": 7962,
      "Ġhol": 7963,
      "Ġpains": 7964,
      "Ġphant": 7965,
      "assemb": 7966,
      "Ġhearer": 7967,
      "Ġlot": 7968,
      "Ġlaughter": 7969,
      "seated": 7970,
      "several": 7971,
      "stone": 7972,
      "Ġep": 7973,
      "entrance": 7974,
      "Ġgrie": 7975,
      "icity": 7976,
      "Ġthither": 7977,
      "irg": 7978,
      "ales": 7979,
      "ĠMeanwhile": 7980,
      "raised": 7981,
      "teroom": 7982,
      "Ġstoo": 7983,
      "hers": 7984,
      "Ġmeal": 7985,
      "Ġseldom": 7986,
      "living": 7987,
      "ĠApri": 7988,
      "ĠCl": 7989,
      "ĠCould": 7990,
      "chive": 7991,
      "chie": 7992,
      "chool": 7993,
      "istr": 7994,
      "anty": 7995,
      "antastic": 7996,
      "ilence": 7997,
      "Ġexhi": 7998,
      "Ġsolic": 7999,
      "Ġsobs": 8000,
      "quer": 8001,
      "text": 8002,
      "threat": 8003,
      "ĠDes": 8004,
      "Ġvio": 8005,
      "Ġvivid": 8006,
      "omeo": 8007,
      "Ġorphan": 8008,
      "unfortun": 8009,
      "Ġshone": 8010,
      "ĠBour": 8011,
      "ĠBorg": 8012,
      "ushes": 8013,
      "emember": 8014,
      "Ġaltered": 8015,
      "Ġnovel": 8016,
      "anger": 8017,
      "ĠSund": 8018,
      "Ġthence": 8019,
      "ĠTal": 8020,
      "Ġarbor": 8021,
      "Ġadvers": 8022,
      "Ġadored": 8023,
      "Ġplanted": 8024,
      "Ġunion": 8025,
      "Ġuncertain": 8026,
      "Ġunjust": 8027,
      "Ġunwilling": 8028,
      "Ġunpleasant": 8029,
      "Ġquad": 8030,
      "Ġdislike": 8031,
      "Ġdisappearance": 8032,
      "Ġcane": 8033,
      "Ġenveloped": 8034,
      "igns": 8035,
      "Ġcontact": 8036,
      "nessed": 8037,
      "Ġprejud": 8038,
      "forg": 8039,
      "forget": 8040,
      "permit": 8041,
      "Ġbeforehand": 8042,
      "Ġblessed": 8043,
      "Ġscenes": 8044,
      "Ġimprud": 8045,
      "Ġtrain": 8046,
      "Ġrecital": 8047,
      "ĠOcean": 8048,
      "Ġappl": 8049,
      "Ġattribute": 8050,
      "Ġconsist": 8051,
      "Ġglowing": 8052,
      "Ġglances": 8053,
      "ictoria": 8054,
      "expect": 8055,
      "exec": 8056,
      "exhaust": 8057,
      "Ġflower": 8058,
      "Ġpeer": 8059,
      "Ġpeasants": 8060,
      "Ġexposed": 8061,
      "Ġdownstairs": 8062,
      "icket": 8063,
      "Ġthroughout": 8064,
      "Ġhappily": 8065,
      "itherto": 8066,
      "ugg": 8067,
      "Ġconfessed": 8068,
      "lands": 8069,
      "Ġpleases": 8070,
      "Ġrefres": 8071,
      "Ġrefresh": 8072,
      "appearing": 8073,
      "Ġcoal": 8074,
      "Ġbarren": 8075,
      "Ġindicate": 8076,
      "Ġindisc": 8077,
      "Ġdeposited": 8078,
      "Ġemotions": 8079,
      "Ġpersonage": 8080,
      "Ġfeels": 8081,
      "Ġinsens": 8082,
      "suc": 8083,
      "Ġthousands": 8084,
      "shot": 8085,
      "cription": 8086,
      "Ġswam": 8087,
      "spap": 8088,
      "Ġinches": 8089,
      "feet": 8090,
      "Ġactually": 8091,
      "Ġinvite": 8092,
      "Ġinvestig": 8093,
      "Ġrelax": 8094,
      "Ġopposed": 8095,
      "Ġopposition": 8096,
      "Ġhasty": 8097,
      "Ġhorsemen": 8098,
      "Ġreasonable": 8099,
      "Ġelevated": 8100,
      "Ġpossesses": 8101,
      "Ġconversed": 8102,
      "Ġmagic": 8103,
      "ĠProven": 8104,
      "Ġbestowed": 8105,
      "Ġdecliv": 8106,
      "Ġrealize": 8107,
      "Ġcolored": 8108,
      "Ġlively": 8109,
      "Ġacquaint": 8110,
      "Ġanimation": 8111,
      "Ġconsideration": 8112,
      "Ġprayer": 8113,
      "Ġpraying": 8114,
      "Ġstronger": 8115,
      "Ġcommands": 8116,
      "Ġhatchet": 8117,
      "Ġsadly": 8118,
      "Ġstriving": 8119,
      "smiling": 8120,
      "Ġawaits": 8121,
      "Ġduly": 8122,
      "pendent": 8123,
      "desired": 8124,
      "imply": 8125,
      "Ġescaping": 8126,
      "Ġrecollections": 8127,
      "Ġcabriolet": 8128,
      "Ġseparate": 8129,
      "Ġexecute": 8130,
      "Ġpoisoned": 8131,
      "Ġwarning": 8132,
      "Ġpalis": 8133,
      "gram": 8134,
      "Ġtea": 8135,
      "ributing": 8136,
      "ittering": 8137,
      "Ġvault": 8138,
      "Ġmoder": 8139,
      "Ġventured": 8140,
      "travel": 8141,
      "Ġoccasioned": 8142,
      "Ġadmirably": 8143,
      "ĠScott": 8144,
      "apartment": 8145,
      "ĠAlready": 8146,
      "umbling": 8147,
      "Ġprojected": 8148,
      "Ġassassination": 8149,
      "Ġvaried": 8150,
      "Ġdetermination": 8151,
      "Ġmaintain": 8152,
      "Ġcollection": 8153,
      "Ġguilt": 8154,
      "Ġmedium": 8155,
      "Probably": 8156,
      "Ġneglig": 8157,
      "Ġpronounce": 8158,
      "regard": 8159,
      "Ġringing": 8160,
      "Ġfancies": 8161,
      "Ġdrinking": 8162,
      "Ġpenetrated": 8163,
      "Ġproudly": 8164,
      "Ġverd": 8165,
      "prisoner": 8166,
      "interested": 8167,
      "Ġprovide": 8168,
      "Ġforests": 8169,
      "Ġwandering": 8170,
      "Ġfashionable": 8171,
      "ĠPorto": 8172,
      "Ġembrace": 8173,
      "Although": 8174,
      "velop": 8175,
      "Ġtheatres": 8176,
      "Ġdomestic": 8177,
      "Ġseamen": 8178,
      "Ġsparkled": 8179,
      "Ġfierce": 8180,
      "Ġpressure": 8181,
      "Ġwiping": 8182,
      "servant": 8183,
      "Ġvolcanic": 8184,
      "waiting": 8185,
      "Ġslope": 8186,
      "answer": 8187,
      "Ġdamask": 8188,
      "Ġmoisture": 8189,
      "Ġsurrounding": 8190,
      "build": 8191,
      "burst": 8192,
      "Ġdignity": 8193,
      "Ġcolumn": 8194,
      "Ġreefs": 8195,
      "inhabited": 8196,
      "Ġsinking": 8197,
      "Ġcigar": 8198,
      "ademark": 8199,
      "Ġtower": 8200,
      "Ġpositively": 8201,
      "resistible": 8202,
      "Ġsprings": 8203,
      "excellency": 8204,
      "memory": 8205,
      "Ġsubsided": 8206,
      "Ġinterfere": 8207,
      "ĠFlorence": 8208,
      "Ġleathern": 8209,
      "Ġquarrel": 8210,
      "bolt": 8211,
      "narrow": 8212,
      "Ġparents": 8213,
      "ĠAlexander": 8214,
      "tolomeo": 8215,
      "Ġenergetic": 8216,
      "moccolet": 8217,
      "rendered": 8218,
      "Ġhaughty": 8219,
      "ondego": 8220,
      "Ġbenefactor": 8221,
      "Julie": 8222,
      "manteau": 8223,
      "Ġingenious": 8224,
      "Felice": 8225,
      "anthrop": 8226,
      "stantinople": 8227,
      "MacNabb": 8228,
      "ĠApril": 8229,
      "19": 8230,
      "41": 8231,
      "45": 8232,
      "93": 8233,
      "99": 8234,
      "Any": 8235,
      "AST": 8236,
      "Com": 8237,
      "Eh": 8238,
      "Emmanuel": 8239,
      "ECT": 8240,
      "Five": 8241,
      "Ferra": 8242,
      "GH": 8243,
      "Had": 8244,
      "Most": 8245,
      "Major": 8246,
      "MENT": 8247,
      "Penelon": 8248,
      "Ten": 8249,
      "Teresa": 8250,
      "awn": 8251,
      "bal": 8252,
      "castle": 8253,
      "distance": 8254,
      "ev": 8255,
      "far": 8256,
      "flo": 8257,
      "free": 8258,
      "few": 8259,
      "girl": 8260,
      "green": 8261,
      "hu": 8262,
      "hon": 8263,
      "iation": 8264,
      "los": 8265,
      "langu": 8266,
      "making": 8267,
      "mission": 8268,
      "nor": 8269,
      "nes": 8270,
      "nay": 8271,
      "nine": 8272,
      "nature": 8273,
      "ober": 8274,
      "pat": 8275,
      "pardon": 8276,
      "sac": 8277,
      "sun": 8278,
      "sold": 8279,
      "script": 8280,
      "try": 8281,
      "true": 8282,
      "uco": 8283,
      "viv": 8284,
      "vals": 8285,
      "west": 8286,
      "wife": 8287,
      "zy": 8288,
      "Ãª": 8289,
      "Ġty": 8290,
      "Ġtax": 8291,
      "Ġtasted": 8292,
      "hered": 8293,
      "Ġaug": 8294,
      "inner": 8295,
      "real": 8296,
      "Ġwax": 8297,
      "Ġwaving": 8298,
      "Ġsin": 8299,
      "Ġsou": 8300,
      "Ġsan": 8301,
      "Ġsom": 8302,
      "Ġsnow": 8303,
      "Ġoh": 8304,
      "Ġoil": 8305,
      "onne": 8306,
      "onia": 8307,
      "Ġban": 8308,
      "Ġburn": 8309,
      "itive": 8310,
      "itudes": 8311,
      "Ġfed": 8312,
      "Ġfath": 8313,
      "Ġfavored": 8314,
      "Ġfasc": 8315,
      "Ġfrank": 8316,
      "Ġfoolish": 8317,
      "Ġcrest": 8318,
      "anse": 8319,
      "anam": 8320,
      "anch": 8321,
      "arg": 8322,
      "arte": 8323,
      "arrived": 8324,
      "Ġdil": 8325,
      "Ġdaring": 8326,
      "âĢľâĢĻ": 8327,
      "inges": 8328,
      "Ġhinges": 8329,
      "Ġpainted": 8330,
      "Ġpasha": 8331,
      "Ġponiard": 8332,
      "atic": 8333,
      "Ġhaz": 8334,
      "Ġnay": 8335,
      "omed": 8336,
      "omer": 8337,
      "sea": 8338,
      "separ": 8339,
      "lean": 8340,
      "lead": 8341,
      "stay": 8342,
      "start": 8343,
      "stream": 8344,
      "cending": 8345,
      "Ġecon": 8346,
      "Ġbeto": 8347,
      "Ġbeach": 8348,
      "Ġgather": 8349,
      "icial": 8350,
      "Ġwhis": 8351,
      "ribly": 8352,
      "verb": 8353,
      "verty": 8354,
      "rand": 8355,
      "rable": 8356,
      "tering": 8357,
      "terior": 8358,
      "Ġstout": 8359,
      "Ġstol": 8360,
      "Ġstaggered": 8361,
      "ctly": 8362,
      "ctober": 8363,
      "Ġdefect": 8364,
      "Ġdefe": 8365,
      "Ġseals": 8366,
      "Ġsepulch": 8367,
      "liance": 8368,
      "lips": 8369,
      "amini": 8370,
      "ĠAcc": 8371,
      "ĠAdieu": 8372,
      "chos": 8373,
      "ifying": 8374,
      "esses": 8375,
      "Ġdose": 8376,
      "Ġexert": 8377,
      "apt": 8378,
      "aparte": 8379,
      "thus": 8380,
      "ĠHaving": 8381,
      "ĠHoly": 8382,
      "ĠHermine": 8383,
      "asting": 8384,
      "unning": 8385,
      "ĠPoint": 8386,
      "told": 8387,
      "estry": 8388,
      "ĠBra": 8389,
      "ĠBridge": 8390,
      "ĠGerman": 8391,
      "emotion": 8392,
      "Ġnephe": 8393,
      "aupo": 8394,
      "Ġrepugn": 8395,
      "Ġwept": 8396,
      "Ġwearing": 8397,
      "angaroo": 8398,
      "ĠFr": 8399,
      "ĠFontaine": 8400,
      "ĠSaturday": 8401,
      "assed": 8402,
      "Ġprocess": 8403,
      "ĠTO": 8404,
      "Ã©serve": 8405,
      "gend": 8406,
      "Ġample": 8407,
      "Ġarch": 8408,
      "Ġleague": 8409,
      "Ġjacket": 8410,
      "ĠLiterary": 8411,
      "Ġplot": 8412,
      "Ġroll": 8413,
      "Ġshaken": 8414,
      "Ġagents": 8415,
      "ĠHelder": 8416,
      "ressions": 8417,
      "Ġperish": 8418,
      "ĠRom": 8419,
      "Ġpoverty": 8420,
      "Ġsomewhere": 8421,
      "Ġdesires": 8422,
      "Ġloose": 8423,
      "Ġraces": 8424,
      "Ġpretext": 8425,
      "neither": 8426,
      "forced": 8427,
      "bear": 8428,
      "Ġchase": 8429,
      "Ġovertake": 8430,
      "Ġprow": 8431,
      "chaise": 8432,
      "Ġclinging": 8433,
      "Ġgrating": 8434,
      "Ġcompass": 8435,
      "Ġcompared": 8436,
      "cerned": 8437,
      "ĠOctober": 8438,
      "Ġappetite": 8439,
      "ogical": 8440,
      "conc": 8441,
      "consequ": 8442,
      "ultiv": 8443,
      "Ġflashes": 8444,
      "Ġexpired": 8445,
      "Ġsailed": 8446,
      "Ġgrav": 8447,
      "canter": 8448,
      "rence": 8449,
      "comed": 8450,
      "Ġlightly": 8451,
      "leton": 8452,
      "caused": 8453,
      "Ġinduced": 8454,
      "plend": 8455,
      "docum": 8456,
      "Ġtrunk": 8457,
      "Ġtrunks": 8458,
      "Ġ17": 8459,
      "ĠInstead": 8460,
      "enses": 8461,
      "Ġgirls": 8462,
      "Ġinsist": 8463,
      "Ġinsisted": 8464,
      "Ġrequires": 8465,
      "curi": 8466,
      "Ġsimplicity": 8467,
      "Ġcondor": 8468,
      "Ġexpressly": 8469,
      "Ġrepeating": 8470,
      "Ġactual": 8471,
      "Ġactivity": 8472,
      "Ġsummer": 8473,
      "Ġproposition": 8474,
      "Ġfootman": 8475,
      "Ġquestioning": 8476,
      "Ġoppose": 8477,
      "Ġconvince": 8478,
      "Ġprize": 8479,
      "Ġbankrupt": 8480,
      "Ġfarrier": 8481,
      "Ġelement": 8482,
      "Ġdeepest": 8483,
      "prevent": 8484,
      "Ġinflex": 8485,
      "attack": 8486,
      "Ġstartled": 8487,
      "unganam": 8488,
      "Ġsatin": 8489,
      "Ġadmired": 8490,
      "brilliant": 8491,
      "Ġkeeper": 8492,
      "Ġannum": 8493,
      "Ġjoyous": 8494,
      "headed": 8495,
      "Ġbuy": 8496,
      "orned": 8497,
      "contr": 8498,
      "contro": 8499,
      "Ġeighty": 8500,
      "anned": 8501,
      "Ġdestruction": 8502,
      "Ġanimated": 8503,
      "rememb": 8504,
      "Ġladder": 8505,
      "elect": 8506,
      "gradually": 8507,
      "Ġcloset": 8508,
      "Ġaccounts": 8509,
      "Ġboxes": 8510,
      "Ġpockets": 8511,
      "Ġpostilion": 8512,
      "requently": 8513,
      "Ġcostumes": 8514,
      "Ġattempts": 8515,
      "ieux": 8516,
      "Ġburden": 8517,
      "Ġdefence": 8518,
      "Ġdefined": 8519,
      "Ġbottles": 8520,
      "Ġdispose": 8521,
      "Ġdisposition": 8522,
      "Ġsystem": 8523,
      "Ġ300": 8524,
      "Ġunfortunates": 8525,
      "Ġdreaded": 8526,
      "Ġpolite": 8527,
      "Ġoblig": 8528,
      "shoulders": 8529,
      "Ġcraft": 8530,
      "Ġreported": 8531,
      "Ġmovements": 8532,
      "anyone": 8533,
      "anything": 8534,
      "according": 8535,
      "uileries": 8536,
      "Ġ40": 8537,
      "Ġridge": 8538,
      "shipwreck": 8539,
      "Ġdonations": 8540,
      "aspard": 8541,
      "seeing": 8542,
      "Ġcharacters": 8543,
      "Ġinquiring": 8544,
      "strong": 8545,
      "Ġobtaining": 8546,
      "Ġtransact": 8547,
      "Ġalarming": 8548,
      "oese": 8549,
      "possessed": 8550,
      "Ġgenius": 8551,
      "Ġneighboring": 8552,
      "Ġshrugged": 8553,
      "moments": 8554,
      "drawing": 8555,
      "Ġpierced": 8556,
      "Ġsuperst": 8557,
      "Ġtortures": 8558,
      "Ġstatement": 8559,
      "Ġstatues": 8560,
      "Ġexecutioner": 8561,
      "millions": 8562,
      "conduct": 8563,
      "Ġerect": 8564,
      "charming": 8565,
      "........": 8566,
      "rateful": 8567,
      "Ġcovering": 8568,
      "Ġdimin": 8569,
      "Ġthunderbolt": 8570,
      "different": 8571,
      "ĠScotch": 8572,
      "Ġobstacle": 8573,
      "magnificent": 8574,
      "Ġarrangement": 8575,
      "ĠQu": 8576,
      "Ġpursuing": 8577,
      "Ġemerged": 8578,
      "Ġphilosophy": 8579,
      "Ġarticles": 8580,
      "promise": 8581,
      "ĠArabian": 8582,
      "Ġtransport": 8583,
      "Ġpetition": 8584,
      "Ġpromptly": 8585,
      "completely": 8586,
      "ĠComte": 8587,
      "ĠGuamini": 8588,
      "OLU": 8589,
      "merely": 8590,
      "Ġexercise": 8591,
      "astonishment": 8592,
      "Ġaccordance": 8593,
      "misfortune": 8594,
      "Ġdazzling": 8595,
      "Ġrailway": 8596,
      "ĠNights": 8597,
      "Ġsurvey": 8598,
      "occupied": 8599,
      "Ġlava": 8600,
      "advanced": 8601,
      "Ġferocious": 8602,
      "Ġforbidden": 8603,
      "Ġshouted": 8604,
      "Ġknocked": 8605,
      "Ġinspired": 8606,
      "grandfather": 8607,
      "Ġembarrassed": 8608,
      "Scarcely": 8609,
      "midst": 8610,
      "Ġmilitary": 8611,
      "ĠLike": 8612,
      "Ġextinguished": 8613,
      "accompanied": 8614,
      "ĠGenoese": 8615,
      "Ġmarchioness": 8616,
      "Ġesteem": 8617,
      "sperity": 8618,
      "ĠLondon": 8619,
      "Bravo": 8620,
      "ĠAssunta": 8621,
      "trembling": 8622,
      "Ġinsect": 8623,
      "Ġungrateful": 8624,
      "Ġmechanically": 8625,
      "Ġpearls": 8626,
      "gentleman": 8627,
      "Ġcommissary": 8628,
      "ĠCharles": 8629,
      "Ġrecompense": 8630,
      "ĠCardinal": 8631,
      "ĠLucca": 8632,
      "Ġhearers": 8633,
      "ĠBorgia": 8634,
      "ĠSunday": 8635,
      "forgotten": 8636,
      "Ġnephew": 8637,
      "unganamu": 8638,
      ".âĢĶ": 8639,
      "49": 8640,
      "AT": 8641,
      "Antin": 8642,
      "Britannia": 8643,
      "Con": 8644,
      "Courage": 8645,
      "Cocles": 8646,
      "Her": 8647,
      "Immediately": 8648,
      "OS": 8649,
      "Once": 8650,
      "PL": 8651,
      "ares": 8652,
      "ben": 8653,
      "bum": 8654,
      "bors": 8655,
      "call": 8656,
      "dam": 8657,
      "dem": 8658,
      "dish": 8659,
      "dened": 8660,
      "ezvous": 8661,
      "fing": 8662,
      "fac": 8663,
      "fÃ©": 8664,
      "fish": 8665,
      "frequently": 8666,
      "gone": 8667,
      "gold": 8668,
      "gutenberg": 8669,
      "hould": 8670,
      "kened": 8671,
      "la": 8672,
      "lag": 8673,
      "laugh": 8674,
      "mal": 8675,
      "monte": 8676,
      "miles": 8677,
      "sails": 8678,
      "tom": 8679,
      "taking": 8680,
      "turning": 8681,
      "uity": 8682,
      "ucted": 8683,
      "va": 8684,
      "war": 8685,
      "wal": 8686,
      "woman": 8687,
      "wonder": 8688,
      "Ãł": 8689,
      "Ġted": 8690,
      "Ġtun": 8691,
      "Ġtart": 8692,
      "Ġtig": 8693,
      "Ġaided": 8694,
      "render": 8695,
      "receive": 8696,
      "Ġwake": 8697,
      "Ġwaking": 8698,
      "Ġwarned": 8699,
      "Ġwestern": 8700,
      "Ġsons": 8701,
      "Ġsoup": 8702,
      "oust": 8703,
      "oups": 8704,
      "hael": 8705,
      "Ġmoss": 8706,
      "Ġmaj": 8707,
      "Ġmaid": 8708,
      "ora": 8709,
      "Ġbars": 8710,
      "ituted": 8711,
      "Ġfishing": 8712,
      "Ġcli": 8713,
      "Ġcases": 8714,
      "Ġcasket": 8715,
      "Ġclenched": 8716,
      "Ġtoilet": 8717,
      "arrang": 8718,
      "Ġdined": 8719,
      "Ġdagger": 8720,
      "esy": 8721,
      "especially": 8722,
      "eslay": 8723,
      "Ġhind": 8724,
      "Ġpon": 8725,
      "Ġpan": 8726,
      "Ġpause": 8727,
      "Ġpaced": 8728,
      "Ġpowers": 8729,
      "Ġpounds": 8730,
      "asy": 8731,
      "ascended": 8732,
      "Ġincess": 8733,
      "Ġincomprehensible": 8734,
      "Ġhence": 8735,
      "Ġnice": 8736,
      "Ġnations": 8737,
      "Ġnurse": 8738,
      "othed": 8739,
      "idings": 8740,
      "sever": 8741,
      "Ġreduced": 8742,
      "Ġrevive": 8743,
      "sters": 8744,
      "stud": 8745,
      "stones": 8746,
      "Ġgust": 8747,
      "Ġgirdle": 8748,
      "iche": 8749,
      "icide": 8750,
      "Ġwhilst": 8751,
      "Ġthresh": 8752,
      "utor": 8753,
      "added": 8754,
      "iration": 8755,
      "along": 8756,
      "ĠMur": 8757,
      "ĠMarch": 8758,
      "ĠMont": 8759,
      "ĠMondego": 8760,
      "illa": 8761,
      "Ġfors": 8762,
      "ros": 8763,
      "robor": 8764,
      "Their": 8765,
      "rain": 8766,
      "Ġattain": 8767,
      "Ġattained": 8768,
      "Ġanti": 8769,
      "Ġanteroom": 8770,
      "Ġstates": 8771,
      "Ġstables": 8772,
      "herself": 8773,
      "cture": 8774,
      "Ġdearest": 8775,
      "Ġmeasure": 8776,
      "Ġseal": 8777,
      "liberty": 8778,
      "amine": 8779,
      "among": 8780,
      "ĠAlas": 8781,
      "ĠAdel": 8782,
      "ĠAfric": 8783,
      "ĠAugust": 8784,
      "kept": 8785,
      "ilbury": 8786,
      "orth": 8787,
      "Ġconvent": 8788,
      "quite": 8789,
      "elcome": 8790,
      "ache": 8791,
      "accept": 8792,
      "alla": 8793,
      "Ġvest": 8794,
      "Ġalle": 8795,
      "osa": 8796,
      "unger": 8797,
      "unknown": 8798,
      "Ġmanage": 8799,
      "Ġmanners": 8800,
      "ĠGard": 8801,
      "empt": 8802,
      "arton": 8803,
      "ĠVen": 8804,
      "ĠVictoria": 8805,
      "uminous": 8806,
      "ĠFour": 8807,
      "Ġproves": 8808,
      "ĠTen": 8809,
      "ĠToul": 8810,
      "ĠTaupo": 8811,
      "Ġrud": 8812,
      "Ġrash": 8813,
      "Ġamusing": 8814,
      "Ġaroused": 8815,
      "angled": 8816,
      "ĠLook": 8817,
      "ĠListen": 8818,
      "oft": 8819,
      "Ġagon": 8820,
      "ĠEven": 8821,
      "Ġunworthy": 8822,
      "Ġunlimited": 8823,
      "Ġhanded": 8824,
      "Ġqueen": 8825,
      "Ġdiss": 8826,
      "Ġdisaster": 8827,
      "Ġcanoes": 8828,
      "Ġspade": 8829,
      "ĠRoyal": 8830,
      "ĠRiver": 8831,
      "Ġretract": 8832,
      "played": 8833,
      "clothes": 8834,
      "ollen": 8835,
      "Ġeyel": 8836,
      "high": 8837,
      "opening": 8838,
      "Ġsmell": 8839,
      "need": 8840,
      "neigh": 8841,
      "next": 8842,
      "Ġresidence": 8843,
      "Ġreserve": 8844,
      "Ġfathers": 8845,
      "behind": 8846,
      "Ġprisons": 8847,
      "character": 8848,
      "Ġclaws": 8849,
      "Ġserpent": 8850,
      "oday": 8851,
      "izier": 8852,
      "Ġscru": 8853,
      "Ġimpass": 8854,
      "Ġimpulse": 8855,
      "Ġapplic": 8856,
      "Ġcontinual": 8857,
      "conn": 8858,
      "Ġgliding": 8859,
      "Ġglittering": 8860,
      "ulture": 8861,
      "Ġfles": 8862,
      "Ġflattered": 8863,
      "undation": 8864,
      "fectly": 8865,
      "Ġnamely": 8866,
      "Ġgrapes": 8867,
      "viding": 8868,
      "Ġhappens": 8869,
      "Ġtermin": 8870,
      "Ġterrif": 8871,
      "common": 8872,
      "Ġconfirm": 8873,
      "Ġacute": 8874,
      "Ġfellows": 8875,
      "Ġpleasing": 8876,
      "Ġrefusal": 8877,
      "Ġgiant": 8878,
      "Ġcrush": 8879,
      "Ġsuffice": 8880,
      "cahu": 8881,
      "erns": 8882,
      "Ġindef": 8883,
      "Ġindisp": 8884,
      "Ġsonorous": 8885,
      "Ġtrade": 8886,
      "Ġtrousers": 8887,
      "Ġbelieving": 8888,
      "enevol": 8889,
      "Ġhonors": 8890,
      "Ġmonarch": 8891,
      "Ġmonkey": 8892,
      "Ġreadiness": 8893,
      "Ġapprobation": 8894,
      "super": 8895,
      "noble": 8896,
      "short": 8897,
      "Ġsteady": 8898,
      "Ġswept": 8899,
      "Ġcaprices": 8900,
      "Ġlands": 8901,
      "ormandy": 8902,
      "Ġslender": 8903,
      "ibou": 8904,
      "Ġdetain": 8905,
      "Ġdetachment": 8906,
      "fted": 8907,
      "Ġrelating": 8908,
      "Ġslumber": 8909,
      "Ġelevation": 8910,
      "Ġdevour": 8911,
      "mont": 8912,
      "months": 8913,
      "Ġinfl": 8914,
      "Ġcharmed": 8915,
      "Ġtrifle": 8916,
      "Ġtribes": 8917,
      "capital": 8918,
      "Ġbandage": 8919,
      "rested": 8920,
      "Ġparoxysm": 8921,
      "Ġdecide": 8922,
      "Ġrealized": 8923,
      "ĠThose": 8924,
      "Ġcolony": 8925,
      "Ġ21": 8926,
      "Ġ200": 8927,
      "Ġsunk": 8928,
      "Ġsunrise": 8929,
      "Ġirresistible": 8930,
      "ĠBartolomeo": 8931,
      "Ġacquire": 8932,
      "Ġstrangely": 8933,
      "Island": 8934,
      "Ġdestiny": 8935,
      "Ġencounter": 8936,
      "Ġchiefs": 8937,
      "observed": 8938,
      "Ġnumbers": 8939,
      "Ġfatality": 8940,
      "Ġhoping": 8941,
      "Ġembarked": 8942,
      "Ġsweat": 8943,
      "Indian": 8944,
      "eppo": 8945,
      "Ġmerited": 8946,
      "untary": 8947,
      "ĠCarlos": 8948,
      "Ġtemple": 8949,
      "Ġbury": 8950,
      "Ġdispute": 8951,
      "Ġ500": 8952,
      "Ġconstruction": 8953,
      "Ġhumanity": 8954,
      "president": 8955,
      "ĠJuly": 8956,
      "ridges": 8957,
      "Ġseparation": 8958,
      "Ġinclination": 8959,
      "Ġtravellers": 8960,
      "betrot": 8961,
      "affairs": 8962,
      "Ġcomplaint": 8963,
      "Ġjudges": 8964,
      "Ġpoisoner": 8965,
      "Ġpunished": 8966,
      "Ġlawy": 8967,
      "Ġshuddering": 8968,
      "Ġfairly": 8969,
      "Ġphil": 8970,
      "Ġphosp": 8971,
      "Ġsuccessful": 8972,
      "Ġcustomary": 8973,
      "Ġcreaked": 8974,
      "volution": 8975,
      "help": 8976,
      "minister": 8977,
      "Ġsorrows": 8978,
      "accone": 8979,
      "Ġridiculous": 8980,
      "chestra": 8981,
      "Ġyielding": 8982,
      "Ġgenerosity": 8983,
      "Ġbrightened": 8984,
      "Ġfrequent": 8985,
      "ĠMaunganamu": 8986,
      "Ġoccasionally": 8987,
      "Ġarrange": 8988,
      "Ġstruggled": 8989,
      "following": 8990,
      "Ġnarrative": 8991,
      "Stay": 8992,
      "umbarton": 8993,
      "marry": 8994,
      "married": 8995,
      "persons": 8996,
      "confess": 8997,
      "Project": 8998,
      "Ġintending": 8999,
      "Ġconsequences": 9000,
      "oupÃ©": 9001,
      "Ġascending": 9002,
      "Ġshrubs": 9003,
      "Ġthreatening": 9004,
      "Ġentreaties": 9005,
      "Ġpierce": 9006,
      "Ġimperceptible": 9007,
      "ĠWithout": 9008,
      "Everyone": 9009,
      "Ġlowering": 9010,
      "distingu": 9011,
      "giving": 9012,
      "Ġadventures": 9013,
      "Ġgroaned": 9014,
      "Ġpeaceful": 9015,
      "Ġentertained": 9016,
      "ĠScotia": 9017,
      "Ġcouple": 9018,
      "Ġhollowed": 9019,
      "skins": 9020,
      "Ġinnocence": 9021,
      "inquir": 9022,
      "Ġsubstance": 9023,
      "Ġpursuit": 9024,
      "Ġconvulsive": 9025,
      "Ġparalyzed": 9026,
      "Ġannoyed": 9027,
      "Ġroyalist": 9028,
      "Ġreflecting": 9029,
      "Ġcomprehended": 9030,
      "Ġhabitu": 9031,
      "Ġhabits": 9032,
      "ĠConstantinople": 9033,
      "Ġreplace": 9034,
      "Ġconsolation": 9035,
      "Ġtreatment": 9036,
      "Ġsustain": 9037,
      "Ġboudoir": 9038,
      "Ġrigid": 9039,
      "satisfaction": 9040,
      "opposite": 9041,
      "Ġavenue": 9042,
      "ĠAmerican": 9043,
      "Ġperilous": 9044,
      "Ġinvoluntarily": 9045,
      "Ġcolonist": 9046,
      "Ġrubbed": 9047,
      "Ġcorrespondent": 9048,
      "enetian": 9049,
      "itatingly": 9050,
      "Ġcolumns": 9051,
      "Ġlodge": 9052,
      "trans": 9053,
      "Ġnational": 9054,
      "Ġextricate": 9055,
      "Ġcheerful": 9056,
      "Ġflocks": 9057,
      "Ġfrown": 9058,
      "Ġcounsel": 9059,
      "large": 9060,
      "folded": 9061,
      "Ġmultitude": 9062,
      "Ġreassured": 9063,
      "Ġseventeen": 9064,
      "Ġexceedingly": 9065,
      "Ġreligious": 9066,
      "embarrass": 9067,
      "darkness": 9068,
      "government": 9069,
      "Ġfunds": 9070,
      "Ġexcessive": 9071,
      "Ġrattling": 9072,
      "further": 9073,
      "situation": 9074,
      "Ġgardener": 9075,
      "ĠPeter": 9076,
      "ĠSalv": 9077,
      "Ġtroublesome": 9078,
      "Ġdelirium": 9079,
      "Ġparadise": 9080,
      "Ġbiscuit": 9081,
      "Ġpirates": 9082,
      "levard": 9083,
      "Ġorgan": 9084,
      "emplo": 9085,
      "Ġspecimen": 9086,
      "ineteen": 9087,
      "Ġborne": 9088,
      "Ġcushions": 9089,
      "Ġrevelation": 9090,
      "Ġramada": 9091,
      "faithful": 9092,
      "ĠTalcahu": 9093,
      "ĠScottish": 9094,
      "Ferrajo": 9095,
      "Ġfathoms": 9096,
      "Ġwhisper": 9097,
      "Ġstolen": 9098,
      "curiosity": 9099,
      "ĠTalcahuana": 9100,
      "07": 9101,
      "39": 9102,
      "50": 9103,
      "69": 9104,
      "Again": 9105,
      "ATION": 9106,
      "Cucumetto": 9107,
      "EW": 9108,
      "Each": 9109,
      "Foll": 9110,
      "General": 9111,
      "ID": 9112,
      "IX": 9113,
      "Mangles": 9114,
      "Melbourne": 9115,
      "OP": 9116,
      "Patagon": 9117,
      "Signor": 9118,
      "Selim": 9119,
      "UT": 9120,
      "VE": 9121,
      "aic": 9122,
      "bac": 9123,
      "brig": 9124,
      "banks": 9125,
      "cre": 9126,
      "cine": 9127,
      "cost": 9128,
      "cold": 9129,
      "died": 9130,
      "double": 9131,
      "eers": 9132,
      "evident": 9133,
      "evidently": 9134,
      "furn": 9135,
      "fig": 9136,
      "fare": 9137,
      "full": 9138,
      "ference": 9139,
      "fixed": 9140,
      "gro": 9141,
      "gest": 9142,
      "glo": 9143,
      "gment": 9144,
      "hically": 9145,
      "horescent": 9146,
      "iated": 9147,
      "knew": 9148,
      "lin": 9149,
      "loud": 9150,
      "laid": 9151,
      "listen": 9152,
      "main": 9153,
      "mour": 9154,
      "oz": 9155,
      "och": 9156,
      "obe": 9157,
      "pi": 9158,
      "pared": 9159,
[...]
